{
  "version": "1.0",
  "truncation": null,
  "padding": null,
  "added_tokens": [
    {
      "id": 0,
      "content": "<PAD>",
      "single_word": false,
      "lstrip": false,
      "rstrip": false,
      "normalized": false,
      "special": true
    },
    {
      "id": 1,
      "content": "<SOS>",
      "single_word": false,
      "lstrip": false,
      "rstrip": false,
      "normalized": false,
      "special": true
    },
    {
      "id": 2,
      "content": "<EOS>",
      "single_word": false,
      "lstrip": false,
      "rstrip": false,
      "normalized": false,
      "special": true
    },
    {
      "id": 3,
      "content": "<UNK>",
      "single_word": false,
      "lstrip": false,
      "rstrip": false,
      "normalized": false,
      "special": true
    }
  ],
  "normalizer": null,
  "pre_tokenizer": {
    "type": "Whitespace"
  },
  "post_processor": null,
  "decoder": null,
  "model": {
    "type": "WordPiece",
    "unk_token": "<UNK>",
    "continuing_subword_prefix": "##",
    "max_input_chars_per_word": 100,
    "vocab": {
      "<PAD>": 0,
      "<SOS>": 1,
      "<EOS>": 2,
      "<UNK>": 3,
      "!": 4,
      "\"": 5,
      "#": 6,
      "$": 7,
      "%": 8,
      "&": 9,
      "'": 10,
      "(": 11,
      ")": 12,
      "*": 13,
      "+": 14,
      "-": 15,
      ".": 16,
      "/": 17,
      "0": 18,
      "1": 19,
      "2": 20,
      "3": 21,
      "4": 22,
      "5": 23,
      "6": 24,
      "7": 25,
      "8": 26,
      "9": 27,
      ":": 28,
      ";": 29,
      "<": 30,
      "=": 31,
      ">": 32,
      "?": 33,
      "@": 34,
      "A": 35,
      "B": 36,
      "C": 37,
      "D": 38,
      "E": 39,
      "F": 40,
      "G": 41,
      "H": 42,
      "I": 43,
      "J": 44,
      "K": 45,
      "L": 46,
      "M": 47,
      "N": 48,
      "O": 49,
      "P": 50,
      "Q": 51,
      "R": 52,
      "S": 53,
      "T": 54,
      "U": 55,
      "V": 56,
      "W": 57,
      "X": 58,
      "Y": 59,
      "Z": 60,
      "[": 61,
      "\\": 62,
      "]": 63,
      "^": 64,
      "_": 65,
      "a": 66,
      "b": 67,
      "c": 68,
      "d": 69,
      "e": 70,
      "f": 71,
      "g": 72,
      "h": 73,
      "i": 74,
      "j": 75,
      "k": 76,
      "l": 77,
      "m": 78,
      "n": 79,
      "o": 80,
      "p": 81,
      "q": 82,
      "r": 83,
      "s": 84,
      "t": 85,
      "u": 86,
      "v": 87,
      "w": 88,
      "x": 89,
      "y": 90,
      "z": 91,
      "{": 92,
      "|": 93,
      "}": 94,
      "~": 95,
      "£": 96,
      "’": 97,
      "😊": 98,
      "😋": 99,
      "😒": 100,
      "😢": 101,
      "##o": 102,
      "##c": 103,
      "##a": 104,
      "##l": 105,
      "##n": 106,
      "##v": 107,
      "##e": 108,
      "##r": 109,
      "##t": 110,
      "##s": 111,
      "##p": 112,
      "##u": 113,
      "##i": 114,
      "##d": 115,
      "##_": 116,
      "##m": 117,
      "##f": 118,
      "##b": 119,
      "##y": 120,
      "##g": 121,
      "##h": 122,
      "##k": 123,
      "##z": 124,
      "##9": 125,
      "##8": 126,
      "##4": 127,
      "##w": 128,
      "##H": 129,
      "##A": 130,
      "##M": 131,
      "##S": 132,
      "##C": 133,
      "##R": 134,
      "##q": 135,
      "##x": 136,
      "##j": 137,
      "##/": 138,
      "##T": 139,
      "##J": 140,
      "##O": 141,
      "##K": 142,
      "##E": 143,
      "##D": 144,
      "##U": 145,
      "##N": 146,
      "##0": 147,
      "##5": 148,
      "##V": 149,
      "##1": 150,
      "##B": 151,
      "##I": 152,
      "##P": 153,
      "###": 154,
      "##Y": 155,
      "##3": 156,
      "##!": 157,
      "##?": 158,
      "##F": 159,
      "##L": 160,
      "##W": 161,
      "##7": 162,
      "##G": 163,
      "##.": 164,
      "##X": 165,
      "##6": 166,
      "##;": 167,
      "##:": 168,
      "##(": 169,
      "##\\": 170,
      "##)": 171,
      "##2": 172,
      "##\"": 173,
      "##Z": 174,
      "##'": 175,
      "##-": 176,
      "##@": 177,
      "##>": 178,
      "##*": 179,
      "##Q": 180,
      "##]": 181,
      "##$": 182,
      "##|": 183,
      "##=": 184,
      "##<": 185,
      "##}": 186,
      "##^": 187,
      "##%": 188,
      "th": 189,
      "##ou": 190,
      "##in": 191,
      "##at": 192,
      "##er": 193,
      "##om": 194,
      "to": 195,
      "##ing": 196,
      "##nd": 197,
      "the": 198,
      "##ma": 199,
      "##or": 200,
      "##com": 201,
      "you": 202,
      "##ma_": 203,
      "##comma_": 204,
      "##_comma_": 205,
      "##ll": 206,
      "##ed": 207,
      "##as": 208,
      "##es": 209,
      "##en": 210,
      "##ea": 211,
      "##on": 212,
      "it": 213,
      "ha": 214,
      "##re": 215,
      "##an": 216,
      "##ve": 217,
      "be": 218,
      "##it": 219,
      "and": 220,
      "that": 221,
      "##ow": 222,
      "##ay": 223,
      "##hat": 224,
      "was": 225,
      "##ot": 226,
      "##id": 227,
      "##st": 228,
      "##et": 229,
      "##ut": 230,
      "my": 231,
      "of": 232,
      "is": 233,
      "in": 234,
      "##ar": 235,
      "##el": 236,
      "##oo": 237,
      "for": 238,
      "so": 239,
      "##gh": 240,
      "##ld": 241,
      "##le": 242,
      "##is": 243,
      "on": 244,
      "do": 245,
      "have": 246,
      "##ke": 247,
      "##im": 248,
      "##he": 249,
      "##ic": 250,
      "##lly": 251,
      "That": 252,
      "##ust": 253,
      "li": 254,
      "##ri": 255,
      "st": 256,
      "me": 257,
      "##ch": 258,
      "##ver": 259,
      "It": 260,
      "wh": 261,
      "##ome": 262,
      "##op": 263,
      "##ere": 264,
      "##ent": 265,
      "##ad": 266,
      "we": 267,
      "ne": 268,
      "##ood": 269,
      "##ould": 270,
      "did": 271,
      "##se": 272,
      "but": 273,
      "an": 274,
      "##ly": 275,
      "go": 276,
      "##ith": 277,
      "rea": 278,
      "su": 279,
      "##ght": 280,
      "##pp": 281,
      "##ear": 282,
      "##ck": 283,
      "##ill": 284,
      "get": 285,
      "am": 286,
      "with": 287,
      "##th": 288,
      "wor": 289,
      "are": 290,
      "can": 291,
      "ab": 292,
      "not": 293,
      "just": 294,
      "##ir": 295,
      "at": 296,
      "fe": 297,
      "he": 298,
      "they": 299,
      "##ter": 300,
      "##am": 301,
      "like": 302,
      "good": 303,
      "##one": 304,
      "really": 305,
      "##ry": 306,
      "##out": 307,
      "out": 308,
      "##ce": 309,
      "##al": 310,
      "re": 311,
      "lo": 312,
      "##ion": 313,
      "Oh": 314,
      "al": 315,
      "your": 316,
      "tim": 317,
      "##end": 318,
      "kn": 319,
      "##ur": 320,
      "up": 321,
      "too": 322,
      "##ee": 323,
      "about": 324,
      "sh": 325,
      "had": 326,
      "feel": 327,
      "What": 328,
      "##ct": 329,
      "time": 330,
      "##ope": 331,
      "##ound": 332,
      "she": 333,
      "know": 334,
      "happ": 335,
      "##ight": 336,
      "##un": 337,
      "##ink": 338,
      "all": 339,
      "when": 340,
      "some": 341,
      "##ess": 342,
      "##est": 343,
      "work": 344,
      "##ant": 345,
      "will": 346,
      "her": 347,
      "##ake": 348,
      "##ind": 349,
      "ex": 350,
      "what": 351,
      "##ast": 352,
      "as": 353,
      "##ul": 354,
      "no": 355,
      "been": 356,
      "##riend": 357,
      "##ra": 358,
      "##ro": 359,
      "##ice": 360,
      "##ore": 361,
      "##ays": 362,
      "think": 363,
      "##ough": 364,
      "them": 365,
      "##ery": 366,
      "##reat": 367,
      "hope": 368,
      "going": 369,
      "would": 370,
      "don": 371,
      "him": 372,
      "got": 373,
      "##ong": 374,
      "My": 375,
      "We": 376,
      "##ate": 377,
      "ba": 378,
      "one": 379,
      "##eah": 380,
      "The": 381,
      "fr": 382,
      "aw": 383,
      "very": 384,
      "any": 385,
      "##au": 386,
      "ever": 387,
      "friend": 388,
      "pl": 389,
      "this": 390,
      "##ally": 391,
      "..": 392,
      "great": 393,
      "##art": 394,
      "see": 395,
      "##her": 396,
      "bet": 397,
      "##ble": 398,
      "##king": 399,
      "ch": 400,
      "Yes": 401,
      "sure": 402,
      "now": 403,
      "or": 404,
      "##omet": 405,
      "there": 406,
      "year": 407,
      "You": 408,
      "hear": 409,
      "thing": 410,
      "##ge": 411,
      "##fe": 412,
      "##ation": 413,
      "##hing": 414,
      "##ool": 415,
      "Yeah": 416,
      "##ame": 417,
      "Did": 418,
      "Wh": 419,
      "Th": 420,
      "mu": 421,
      "want": 422,
      "##il": 423,
      "pre": 424,
      "were": 425,
      "happen": 426,
      "how": 427,
      "mo": 428,
      "##day": 429,
      "somet": 430,
      "##ers": 431,
      "He": 432,
      "new": 433,
      "every": 434,
      "well": 435,
      "##ven": 436,
      "##ous": 437,
      "from": 438,
      "com": 439,
      "bad": 440,
      "##ways": 441,
      "back": 442,
      "wee": 443,
      "##orry": 444,
      "lot": 445,
      "##ain": 446,
      "har": 447,
      "##eop": 448,
      "day": 449,
      "always": 450,
      "##eople": 451,
      "sp": 452,
      "cl": 453,
      "much": 454,
      "ag": 455,
      "##and": 456,
      "nice": 457,
      "##nt": 458,
      "sc": 459,
      "hard": 460,
      "##ful": 461,
      "ve": 462,
      "##ie": 463,
      "##ank": 464,
      "could": 465,
      "##ving": 466,
      "people": 467,
      "##ounds": 468,
      "##sed": 469,
      "##ty": 470,
      "gu": 471,
      "##ort": 472,
      "jo": 473,
      "de": 474,
      "##ive": 475,
      "car": 476,
      "##ely": 477,
      "sorry": 478,
      "How": 479,
      "sa": 480,
      "if": 481,
      "##all": 482,
      "##ting": 483,
      "man": 484,
      "##thing": 485,
      "##ause": 486,
      "bu": 487,
      "tr": 488,
      "pr": 489,
      "love": 490,
      "should": 491,
      "##ff": 492,
      "fun": 493,
      "never": 494,
      "make": 495,
      "##ine": 496,
      "con": 497,
      "old": 498,
      "kid": 499,
      "##dy": 500,
      "##elf": 501,
      "##oy": 502,
      "##ol": 503,
      "##other": 504,
      "##mp": 505,
      "##ish": 506,
      "They": 507,
      "##ies": 508,
      "didn": 509,
      "##cause": 510,
      "br": 511,
      "over": 512,
      "job": 513,
      "##ig": 514,
      "Well": 515,
      "happy": 516,
      "##nder": 517,
      "loo": 518,
      "off": 519,
      "She": 520,
      "try": 521,
      "more": 522,
      "long": 523,
      "en": 524,
      "oth": 525,
      "mad": 526,
      "##ick": 527,
      "ar": 528,
      "fa": 529,
      "le": 530,
      "##os": 531,
      "##ci": 532,
      "need": 533,
      "because": 534,
      "kind": 535,
      "##ose": 536,
      "has": 537,
      "##ily": 538,
      "sounds": 539,
      "...": 540,
      "##pe": 541,
      "right": 542,
      "must": 543,
      "though": 544,
      "pret": 545,
      "week": 546,
      "##self": 547,
      "af": 548,
      "##ought": 549,
      "something": 550,
      "still": 551,
      "##uck": 552,
      "##be": 553,
      "his": 554,
      "co": 555,
      "pretty": 556,
      "ma": 557,
      "hel": 558,
      "better": 559,
      "##itt": 560,
      "dog": 561,
      "does": 562,
      "scar": 563,
      "pro": 564,
      "##esome": 565,
      "even": 566,
      "help": 567,
      "di": 568,
      "No": 569,
      "way": 570,
      "##ite": 571,
      "other": 572,
      "##eal": 573,
      "last": 574,
      "##mb": 575,
      "fir": 576,
      "##kes": 577,
      "##s_comma_": 578,
      "home": 579,
      "##are": 580,
      "##ean": 581,
      "hou": 582,
      "Do": 583,
      "##ell": 584,
      "life": 585,
      "##aybe": 586,
      "gr": 587,
      "things": 588,
      "##ide": 589,
      "take": 590,
      "##ard": 591,
      "##ittle": 592,
      "##us": 593,
      "went": 594,
      "first": 595,
      "##ved": 596,
      "sch": 597,
      "who": 598,
      "little": 599,
      "friends": 600,
      "##atch": 601,
      "years": 602,
      "wa": 603,
      "##ha": 604,
      "ll": 605,
      "fam": 606,
      "stu": 607,
      "awesome": 608,
      "##own": 609,
      "Yes_comma_": 610,
      "exc": 611,
      "##ep": 612,
      "##ually": 613,
      "qu": 614,
      "find": 615,
      "then": 616,
      "Yeah_comma_": 617,
      "best": 618,
      "start": 619,
      "Wow": 620,
      "by": 621,
      "school": 622,
      "wait": 623,
      "##ue": 624,
      "family": 625,
      "se": 626,
      "un": 627,
      "Ha": 628,
      "But": 629,
      "cou": 630,
      "lol": 631,
      "##per": 632,
      "##ass": 633,
      "int": 634,
      "happened": 635,
      "excit": 636,
      "part": 637,
      "##ked": 638,
      "after": 639,
      "##ried": 640,
      "someone": 641,
      "##xt": 642,
      "kids": 643,
      "Thank": 644,
      "comp": 645,
      "##eep": 646,
      "##elt": 647,
      "##ree": 648,
      "yes": 649,
      "made": 650,
      "##ment": 651,
      "play": 652,
      "##ist": 653,
      "felt": 654,
      "##fore": 655,
      "feeling": 656,
      "##oney": 657,
      "ok": 658,
      "us": 659,
      "away": 660,
      "under": 661,
      "##rible": 662,
      "Why": 663,
      "money": 664,
      "before": 665,
      "ter": 666,
      "##ning": 667,
      "ro": 668,
      "Are": 669,
      "##ile": 670,
      "today": 671,
      "##igh": 672,
      "##imes": 673,
      "thr": 674,
      "getting": 675,
      "being": 676,
      "gl": 677,
      "night": 678,
      "##ft": 679,
      "par": 680,
      "next": 681,
      "##fu": 682,
      "##rat": 683,
      "##ress": 684,
      "luck": 685,
      "able": 686,
      "house": 687,
      "rel": 688,
      "ta": 689,
      "##ead": 690,
      "only": 691,
      "its": 692,
      "##irl": 693,
      "their": 694,
      "doing": 695,
      "##ild": 696,
      "into": 697,
      "sad": 698,
      "big": 699,
      "end": 700,
      "##ac": 701,
      "act": 702,
      "keep": 703,
      "down": 704,
      "So": 705,
      "mis": 706,
      "anything": 707,
      "girl": 708,
      "##iz": 709,
      "##ace": 710,
      "oh": 711,
      "fin": 712,
      "than": 713,
      "##urn": 714,
      "cool": 715,
      "sw": 716,
      "##wn": 717,
      "##ise": 718,
      "around": 719,
      "##ms": 720,
      "tal": 721,
      "days": 722,
      "say": 723,
      "wish": 724,
      "mon": 725,
      "thought": 726,
      "watch": 727,
      "glad": 728,
      "mom": 729,
      "##ations": 730,
      "##erv": 731,
      "our": 732,
      "##ip": 733,
      "thats": 734,
      "care": 735,
      "hate": 736,
      "myself": 737,
      "guess": 738,
      "##ity": 739,
      "rec": 740,
      "plan": 741,
      "##fully": 742,
      "app": 743,
      "Maybe": 744,
      "imp": 745,
      "##ab": 746,
      "again": 747,
      "underst": 748,
      "bl": 749,
      "why": 750,
      "dr": 751,
      "rem": 752,
      "pay": 753,
      "ac": 754,
      "##ost": 755,
      "same": 756,
      "##ince": 757,
      "##ure": 758,
      "guy": 759,
      "month": 760,
      "che": 761,
      "few": 762,
      "##ents": 763,
      "everything": 764,
      "Is": 765,
      "##mber": 766,
      "understand": 767,
      "many": 768,
      "pers": 769,
      "through": 770,
      "call": 771,
      "wow": 772,
      "dis": 773,
      "##aught": 774,
      "inter": 775,
      "##mm": 776,
      "##ated": 777,
      "since": 778,
      "come": 779,
      "##ious": 780,
      "let": 781,
      "least": 782,
      "makes": 783,
      "##ward": 784,
      "won": 785,
      "person": 786,
      "those": 787,
      "tell": 788,
      "sur": 789,
      "ad": 790,
      "##get": 791,
      "##maz": 792,
      "dri": 793,
      "such": 794,
      "miss": 795,
      "eat": 796,
      "mean": 797,
      "##ng": 798,
      "##vie": 799,
      "##pect": 800,
      "##so": 801,
      "res": 802,
      "!!": 803,
      "where": 804,
      "chan": 805,
      "found": 806,
      "while": 807,
      "amaz": 808,
      "child": 809,
      "scared": 810,
      "##pr": 811,
      "having": 812,
      "##ently": 813,
      "terrible": 814,
      "##ence": 815,
      "cr": 816,
      "sometimes": 817,
      "put": 818,
      "##ack": 819,
      "##ves": 820,
      "##oud": 821,
      "Not": 822,
      "bit": 823,
      "tra": 824,
      "wanted": 825,
      "look": 826,
      "##ongrat": 827,
      "done": 828,
      "scary": 829,
      "used": 830,
      "bel": 831,
      "Its": 832,
      "nerv": 833,
      "##able": 834,
      "live": 835,
      "excited": 836,
      "looking": 837,
      "##ult": 838,
      "thank": 839,
      "amazing": 840,
      "show": 841,
      "food": 842,
      "ago": 843,
      "##vor": 844,
      "_comma_": 845,
      "Have": 846,
      "tw": 847,
      "##kend": 848,
      "##ag": 849,
      "##joy": 850,
      "weekend": 851,
      "##age": 852,
      "trying": 853,
      "Aw": 854,
      "Was": 855,
      "also": 856,
      "here": 857,
      "##ife": 858,
      "##ieve": 859,
      "##ss": 860,
      "saw": 861,
      "##oth": 862,
      "wasn": 863,
      "ph": 864,
      "okay": 865,
      "took": 866,
      "soon": 867,
      "most": 868,
      "sit": 869,
      "##eam": 870,
      "##int": 871,
      "real": 872,
      "actually": 873,
      "##pl": 874,
      "enjoy": 875,
      "nervous": 876,
      "##fin": 877,
      "##friend": 878,
      "place": 879,
      "##ember": 880,
      "stay": 881,
      "##mor": 882,
      "##eak": 883,
      "cat": 884,
      "Oh_comma_": 885,
      "diff": 886,
      "wo": 887,
      "favor": 888,
      "yeah": 889,
      "id": 890,
      "##ock": 891,
      "cra": 892,
      "##ably": 893,
      "suck": 894,
      "supp": 895,
      "fl": 896,
      "Good": 897,
      "Just": 898,
      "another": 899,
      "times": 900,
      "ups": 901,
      "##ater": 902,
      "own": 903,
      "yet": 904,
      "left": 905,
      "##eet": 906,
      "brother": 907,
      "No_comma_": 908,
      "##rand": 909,
      "remember": 910,
      "pu": 911,
      "##finit": 912,
      "memor": 913,
      "##orr": 914,
      "surpr": 915,
      "gi": 916,
      "##bably": 917,
      "##ied": 918,
      "ready": 919,
      "turn": 920,
      "##ason": 921,
      "believe": 922,
      "##ase": 923,
      "proud": 924,
      "pos": 925,
      "buy": 926,
      "##finitely": 927,
      "When": 928,
      "it_comma_": 929,
      "tri": 930,
      "wal": 931,
      "wr": 932,
      "hur": 933,
      "said": 934,
      "Hope": 935,
      "##00": 936,
      "##ance": 937,
      "Well_comma_": 938,
      "upset": 939,
      "wife": 940,
      "dec": 941,
      "came": 942,
      "fo": 943,
      "##lle": 944,
      "hu": 945,
      "##assed": 946,
      "##ich": 947,
      "##ident": 948,
      "And": 949,
      "cont": 950,
      "##ten": 951,
      "str": 952,
      "haha": 953,
      "##ever": 954,
      "recently": 955,
      "lea": 956,
      "might": 957,
      "everyone": 958,
      "##ach": 959,
      "##by": 960,
      "##act": 961,
      "##each": 962,
      "po": 963,
      "favorite": 964,
      "##ook": 965,
      "##terday": 966,
      "yea": 967,
      "##pt": 968,
      "bir": 969,
      "Thats": 970,
      "lost": 971,
      "two": 972,
      "idea": 973,
      "give": 974,
      "game": 975,
      "son": 976,
      "fi": 977,
      "win": 978,
      "quite": 979,
      "##pen": 980,
      "There": 981,
      "##ud": 982,
      "##cial": 983,
      "maybe": 984,
      "##ately": 985,
      "##bor": 986,
      "##ating": 987,
      "stuff": 988,
      "Wow_comma_": 989,
      "##ew": 990,
      "daught": 991,
      "alone": 992,
      "sma": 993,
      "##zy": 994,
      "working": 995,
      "wonder": 996,
      "told": 997,
      "true": 998,
      "##fort": 999,
      "ann": 1000,
      "colle": 1001,
      "Congrat": 1002,
      "ins": 1003,
      "no_comma_": 1004,
      "Im": 1005,
      "prep": 1006,
      "clean": 1007,
      "neigh": 1008,
      "lear": 1009,
      "grad": 1010,
      "high": 1011,
      "test": 1012,
      "gro": 1013,
      "yourself": 1014,
      "enough": 1015,
      "##ner": 1016,
      "##ny": 1017,
      "##na": 1018,
      "mar": 1019,
      "##orrow": 1020,
      "sweet": 1021,
      "##gether": 1022,
      "together": 1023,
      "##mag": 1024,
      "definitely": 1025,
      "probably": 1026,
      "doesn": 1027,
      "eas": 1028,
      "once": 1029,
      "##ang": 1030,
      "##ather": 1031,
      "bus": 1032,
      "##most": 1033,
      "nothing": 1034,
      "att": 1035,
      "el": 1036,
      "##ath": 1037,
      "haven": 1038,
      "neighbor": 1039,
      "agree": 1040,
      "exciting": 1041,
      "hus": 1042,
      "dont": 1043,
      "hor": 1044,
      "trust": 1045,
      "##leep": 1046,
      "super": 1047,
      "##mmer": 1048,
      "parents": 1049,
      "Thanks": 1050,
      "##cially": 1051,
      "bo": 1052,
      "##ne": 1053,
      "expect": 1054,
      "ear": 1055,
      "tried": 1056,
      "##hip": 1057,
      "young": 1058,
      "conf": 1059,
      "##cer": 1060,
      "rest": 1061,
      "##band": 1062,
      "spe": 1063,
      "birth": 1064,
      "almost": 1065,
      "college": 1066,
      "move": 1067,
      "husband": 1068,
      "im": 1069,
      "##ple": 1070,
      "that_comma_": 1071,
      "yesterday": 1072,
      "vac": 1073,
      "memories": 1074,
      "far": 1075,
      "meet": 1076,
      "daughter": 1077,
      "coming": 1078,
      "else": 1079,
      "deal": 1080,
      "##ned": 1081,
      "##rea": 1082,
      "Some": 1083,
      "happens": 1084,
      "Yea": 1085,
      ":)": 1086,
      "anyone": 1087,
      "trip": 1088,
      "##ord": 1089,
      "lucky": 1090,
      "##ash": 1091,
      "thinking": 1092,
      "If": 1093,
      "Me": 1094,
      "imag": 1095,
      "girlfriend": 1096,
      "hurt": 1097,
      "##mal": 1098,
      "per": 1099,
      "talk": 1100,
      "grand": 1101,
      "sucks": 1102,
      "##ared": 1103,
      "party": 1104,
      "run": 1105,
      "class": 1106,
      "annoy": 1107,
      "guys": 1108,
      "boy": 1109,
      "heal": 1110,
      "la": 1111,
      "close": 1112,
      "##gg": 1113,
      "taking": 1114,
      "birthday": 1115,
      "Where": 1116,
      "wrong": 1117,
      "exper": 1118,
      "fine": 1119,
      "unt": 1120,
      "stop": 1121,
      "##ither": 1122,
      "bro": 1123,
      "Hopefully": 1124,
      "seems": 1125,
      "started": 1126,
      "cut": 1127,
      "##pecially": 1128,
      "hour": 1129,
      "bought": 1130,
      "without": 1131,
      "tom": 1132,
      "seem": 1133,
      "des": 1134,
      "months": 1135,
      "until": 1136,
      "tough": 1137,
      "pa": 1138,
      "##ience": 1139,
      "compl": 1140,
      "##ave": 1141,
      "##uation": 1142,
      "heard": 1143,
      "##ork": 1144,
      "##ond": 1145,
      "##specially": 1146,
      "Nice": 1147,
      "alrea": 1148,
      "already": 1149,
      "use": 1150,
      "import": 1151,
      "##wh": 1152,
      "room": 1153,
      "crazy": 1154,
      "sleep": 1155,
      "reason": 1156,
      "##unch": 1157,
      "finally": 1158,
      "##ition": 1159,
      "emb": 1160,
      "baby": 1161,
      "prom": 1162,
      "acc": 1163,
      "important": 1164,
      "##ised": 1165,
      "both": 1166,
      "usually": 1167,
      "imagine": 1168,
      "sl": 1169,
      "vis": 1170,
      "##ulations": 1171,
      "Sounds": 1172,
      "embar": 1173,
      "these": 1174,
      "forward": 1175,
      "hit": 1176,
      "passed": 1177,
      "##vent": 1178,
      "knew": 1179,
      "check": 1180,
      "vacation": 1181,
      "##ont": 1182,
      "awful": 1183,
      "tomorrow": 1184,
      "##um": 1185,
      "##view": 1186,
      "##ire": 1187,
      "movie": 1188,
      "couldn": 1189,
      "compan": 1190,
      "sick": 1191,
      "##si": 1192,
      "differ": 1193,
      "hand": 1194,
      "dad": 1195,
      "fu": 1196,
      "##ier": 1197,
      "mor": 1198,
      "##ions": 1199,
      "Somet": 1200,
      "te": 1201,
      "pet": 1202,
      "you_comma_": 1203,
      "store": 1204,
      "worst": 1205,
      "gave": 1206,
      "wonderful": 1207,
      "ret": 1208,
      "##ken": 1209,
      "sist": 1210,
      "##gry": 1211,
      "Were": 1212,
      "##ump": 1213,
      "whole": 1214,
      "seen": 1215,
      "visit": 1216,
      "##ing_comma_": 1217,
      "##very": 1218,
      "leave": 1219,
      "study": 1220,
      "health": 1221,
      "inst": 1222,
      "stress": 1223,
      "past": 1224,
      "weeks": 1225,
      "##der": 1226,
      "horrible": 1227,
      "pass": 1228,
      "couple": 1229,
      "late": 1230,
      "world": 1231,
      "which": 1232,
      "situation": 1233,
      "prepared": 1234,
      "sec": 1235,
      "interest": 1236,
      "##onna": 1237,
      "bring": 1238,
      "morning": 1239,
      "ho": 1240,
      "break": 1241,
      "cour": 1242,
      "either": 1243,
      "ra": 1244,
      "##raid": 1245,
      "sound": 1246,
      "spend": 1247,
      "gone": 1248,
      "afraid": 1249,
      "making": 1250,
      "##ball": 1251,
      "##ect": 1252,
      "gets": 1253,
      "##fortun": 1254,
      "##ax": 1255,
      "##ness": 1256,
      "##our": 1257,
      "proble": 1258,
      "hon": 1259,
      "appre": 1260,
      "sm": 1261,
      "worked": 1262,
      "worried": 1263,
      "gonna": 1264,
      "##ict": 1265,
      "experience": 1266,
      "sk": 1267,
      "ap": 1268,
      "didnt": 1269,
      "count": 1270,
      "head": 1271,
      "##ling": 1272,
      "inv": 1273,
      "change": 1274,
      "##actly": 1275,
      "##og": 1276,
      "##up": 1277,
      "too_comma_": 1278,
      "##where": 1279,
      "pain": 1280,
      "tot": 1281,
      "forg": 1282,
      "worth": 1283,
      "##oss": 1284,
      "mind": 1285,
      "stor": 1286,
      "goes": 1287,
      "summer": 1288,
      "ext": 1289,
      "##side": 1290,
      "ended": 1291,
      "gam": 1292,
      "moved": 1293,
      "##more": 1294,
      "##hood": 1295,
      "##ctor": 1296,
      "drive": 1297,
      "company": 1298,
      "##vers": 1299,
      "embarr": 1300,
      "##rif": 1301,
      "##if": 1302,
      "anymore": 1303,
      "needed": 1304,
      "relax": 1305,
      "different": 1306,
      "fast": 1307,
      "ty": 1308,
      "##ren": 1309,
      "ask": 1310,
      "##ize": 1311,
      "phone": 1312,
      "boss": 1313,
      "##sh": 1314,
      "wouldn": 1315,
      "Sometimes": 1316,
      "##ped": 1317,
      "playing": 1318,
      "sister": 1319,
      "pol": 1320,
      "interview": 1321,
      "outside": 1322,
      "grow": 1323,
      "cant": 1324,
      "##ude": 1325,
      "##ime": 1326,
      "mine": 1327,
      "team": 1328,
      "This": 1329,
      "##imal": 1330,
      "waiting": 1331,
      "called": 1332,
      "10": 1333,
      "Haha": 1334,
      "##sic": 1335,
      "Be": 1336,
      "hop": 1337,
      "##right": 1338,
      "shock": 1339,
      "talking": 1340,
      "mess": 1341,
      "##ider": 1342,
      "##osed": 1343,
      "##fect": 1344,
      "appreci": 1345,
      "At": 1346,
      "surprise": 1347,
      "fix": 1348,
      "stud": 1349,
      "Every": 1350,
      "pick": 1351,
      "ton": 1352,
      "##ret": 1353,
      "##otion": 1354,
      "isn": 1355,
      "gross": 1356,
      "Don": 1357,
      "##ird": 1358,
      "Who": 1359,
      "animal": 1360,
      "Can": 1361,
      "annoying": 1362,
      "min": 1363,
      "##ed_comma_": 1364,
      "St": 1365,
      "heart": 1366,
      "impress": 1367,
      "news": 1368,
      "Congratulations": 1369,
      "especially": 1370,
      "##ert": 1371,
      "Ch": 1372,
      "teach": 1373,
      "##y_comma_": 1374,
      "##erve": 1375,
      "often": 1376,
      "##pped": 1377,
      "exam": 1378,
      "order": 1379,
      "##izz": 1380,
      "feels": 1381,
      "relations": 1382,
      "free": 1383,
      "watching": 1384,
      "##bo": 1385,
      "each": 1386,
      "##les": 1387,
      "##ping": 1388,
      "special": 1389,
      "worry": 1390,
      "point": 1391,
      "relationship": 1392,
      "pres": 1393,
      "Sorry": 1394,
      "##itch": 1395,
      "me_comma_": 1396,
      "worse": 1397,
      "cow": 1398,
      "##qu": 1399,
      "##rew": 1400,
      "angry": 1401,
      "gift": 1402,
      "dogs": 1403,
      "del": 1404,
      "tick": 1405,
      "##cc": 1406,
      "pizz": 1407,
      "##rt": 1408,
      "ran": 1409,
      "##ap": 1410,
      "lon": 1411,
      "easy": 1412,
      "less": 1413,
      "##sive": 1414,
      "##ia": 1415,
      "##man": 1416,
      "##way": 1417,
      "hours": 1418,
      "honest": 1419,
      "open": 1420,
      "##h_comma_": 1421,
      "Now": 1422,
      "loved": 1423,
      "course": 1424,
      "totally": 1425,
      "##ces": 1426,
      "##app": 1427,
      "##iv": 1428,
      "may": 1429,
      "hopefully": 1430,
      "din": 1431,
      "lose": 1432,
      "##iness": 1433,
      "water": 1434,
      "inc": 1435,
      "door": 1436,
      "list": 1437,
      "unfortun": 1438,
      "ser": 1439,
      "##vel": 1440,
      "frust": 1441,
      "##ject": 1442,
      "##ract": 1443,
      "games": 1444,
      "Rea": 1445,
      "cons": 1446,
      "forgot": 1447,
      "20": 1448,
      "##itive": 1449,
      "wow_comma_": 1450,
      "sn": 1451,
      "rep": 1452,
      "mother": 1453,
      "doctor": 1454,
      "diffic": 1455,
      "##ppy": 1456,
      "town": 1457,
      "pizza": 1458,
      "date": 1459,
      "##come": 1460,
      "front": 1461,
      "terrif": 1462,
      "broke": 1463,
      "Really": 1464,
      "##ary": 1465,
      "cho": 1466,
      "In": 1467,
      "later": 1468,
      "##ided": 1469,
      "quick": 1470,
      "!!!": 1471,
      "good_comma_": 1472,
      "seeing": 1473,
      "cam": 1474,
      "##ense": 1475,
      "##ount": 1476,
      "expen": 1477,
      "learn": 1478,
      "accident": 1479,
      "ind": 1480,
      "##less": 1481,
      "##ouble": 1482,
      "difficult": 1483,
      "surprised": 1484,
      "iss": 1485,
      "know_comma_": 1486,
      "##ying": 1487,
      "card": 1488,
      "##ww": 1489,
      "died": 1490,
      "foot": 1491,
      "ticket": 1492,
      "##ush": 1493,
      "fan": 1494,
      "##uring": 1495,
      "disapp": 1496,
      "confident": 1497,
      "dinner": 1498,
      ":(": 1499,
      "asked": 1500,
      "near": 1501,
      "##atter": 1502,
      "##ealous": 1503,
      "drink": 1504,
      "##ding": 1505,
      "ones": 1506,
      "event": 1507,
      "jealous": 1508,
      "ate": 1509,
      "set": 1510,
      "##bs": 1511,
      "driving": 1512,
      "married": 1513,
      "frustrat": 1514,
      "lau": 1515,
      "##ike": 1516,
      "children": 1517,
      "type": 1518,
      "hot": 1519,
      "##eed": 1520,
      "weird": 1521,
      "comm": 1522,
      "huge": 1523,
      "paid": 1524,
      "##iet": 1525,
      "manag": 1526,
      "hoping": 1527,
      "##line": 1528,
      "moment": 1529,
      "small": 1530,
      "complet": 1531,
      "funny": 1532,
      "looked": 1533,
      "bor": 1534,
      "##cept": 1535,
      "well_comma_": 1536,
      "##air": 1537,
      "ru": 1538,
      "##ues": 1539,
      "older": 1540,
      "cert": 1541,
      "##aur": 1542,
      "em": 1543,
      "##vies": 1544,
      "turned": 1545,
      "apart": 1546,
      "##ined": 1547,
      "god": 1548,
      "eating": 1549,
      "##ark": 1550,
      "shop": 1551,
      "decided": 1552,
      "lonely": 1553,
      "busy": 1554,
      "beach": 1555,
      "side": 1556,
      "##amed": 1557,
      "movies": 1558,
      "##olut": 1559,
      "brought": 1560,
      "##ized": 1561,
      "##ian": 1562,
      "char": 1563,
      "comes": 1564,
      "##ept": 1565,
      "road": 1566,
      "positive": 1567,
      "##sible": 1568,
      "cowork": 1569,
      "##aurant": 1570,
      "nor": 1571,
      "##gust": 1572,
      "##erg": 1573,
      "disappo": 1574,
      "##eb": 1575,
      "works": 1576,
      "others": 1577,
      "restaurant": 1578,
      "emp": 1579,
      "police": 1580,
      "during": 1581,
      "fall": 1582,
      "##ted": 1583,
      "minut": 1584,
      "living": 1585,
      "problem": 1586,
      "bill": 1587,
      "fut": 1588,
      "##vious": 1589,
      "##ower": 1590,
      "met": 1591,
      "mist": 1592,
      "anx": 1593,
      "walk": 1594,
      "adv": 1595,
      "interesting": 1596,
      "shocked": 1597,
      "future": 1598,
      "bed": 1599,
      "rain": 1600,
      "##od": 1601,
      "##rist": 1602,
      "sho": 1603,
      "thankful": 1604,
      "rid": 1605,
      "full": 1606,
      "sing": 1607,
      "##mas": 1608,
      "##ates": 1609,
      "##ired": 1610,
      "reg": 1611,
      "exactly": 1612,
      "expensive": 1613,
      "laugh": 1614,
      "##dd": 1615,
      "return": 1616,
      "##ail": 1617,
      "##pon": 1618,
      "##gn": 1619,
      "great_comma_": 1620,
      "city": 1621,
      "##aster": 1622,
      "##ures": 1623,
      "dep": 1624,
      "face": 1625,
      "plans": 1626,
      "smart": 1627,
      "name": 1628,
      "finish": 1629,
      "congrat": 1630,
      "kill": 1631,
      "##cy": 1632,
      "sto": 1633,
      "instead": 1634,
      "med": 1635,
      "##akes": 1636,
      "cute": 1637,
      "sim": 1638,
      "##red": 1639,
      "ent": 1640,
      "vide": 1641,
      "##em": 1642,
      "online": 1643,
      "walking": 1644,
      "extra": 1645,
      "word": 1646,
      "##ign": 1647,
      "gradu": 1648,
      "early": 1649,
      "LO": 1650,
      "##sing": 1651,
      "##ars": 1652,
      "support": 1653,
      "##olutely": 1654,
      "Tr": 1655,
      "self": 1656,
      "##ged": 1657,
      "##rr": 1658,
      "Al": 1659,
      "Su": 1660,
      "catch": 1661,
      "hang": 1662,
      "Does": 1663,
      "appreciate": 1664,
      "One": 1665,
      "aff": 1666,
      "caught": 1667,
      "trouble": 1668,
      "....": 1669,
      "promotion": 1670,
      "safe": 1671,
      "dra": 1672,
      "##ps": 1673,
      "##ger": 1674,
      "raise": 1675,
      "##for": 1676,
      "lately": 1677,
      "pict": 1678,
      "##gs": 1679,
      "On": 1680,
      "cook": 1681,
      "treat": 1682,
      "##ming": 1683,
      "stand": 1684,
      "##unk": 1685,
      "moving": 1686,
      "park": 1687,
      "takes": 1688,
      "supposed": 1689,
      "boyfriend": 1690,
      "cake": 1691,
      "fight": 1692,
      "gen": 1693,
      "All": 1694,
      "time_comma_": 1695,
      "Those": 1696,
      "certain": 1697,
      "ey": 1698,
      "kept": 1699,
      "pack": 1700,
      "##ix": 1701,
      "##es_comma_": 1702,
      "##ical": 1703,
      "offer": 1704,
      "area": 1705,
      "yes_comma_": 1706,
      "meeting": 1707,
      "matter": 1708,
      "rough": 1709,
      "beh": 1710,
      "planning": 1711,
      "ah": 1712,
      "did_comma_": 1713,
      "disgust": 1714,
      "expecting": 1715,
      "sent": 1716,
      "is_comma_": 1717,
      "music": 1718,
      "tonight": 1719,
      "serious": 1720,
      "wind": 1721,
      "light": 1722,
      "##room": 1723,
      "now_comma_": 1724,
      "##olog": 1725,
      "##co": 1726,
      "gotten": 1727,
      "fair": 1728,
      "starting": 1729,
      "throw": 1730,
      "childhood": 1731,
      "concer": 1732,
      "For": 1733,
      "fly": 1734,
      "dist": 1735,
      "##wards": 1736,
      "##body": 1737,
      "##ased": 1738,
      "##urance": 1739,
      "Any": 1740,
      "Yea_comma_": 1741,
      "hold": 1742,
      "helped": 1743,
      "train": 1744,
      "afford": 1745,
      "bea": 1746,
      "##lled": 1747,
      "##ction": 1748,
      "frustrating": 1749,
      "age": 1750,
      "bunch": 1751,
      "##ane": 1752,
      "scr": 1753,
      "fail": 1754,
      "law": 1755,
      "da": 1756,
      "##bt": 1757,
      "forget": 1758,
      "##ention": 1759,
      "loc": 1760,
      "lots": 1761,
      "sorry_comma_": 1762,
      "business": 1763,
      "studying": 1764,
      "listen": 1765,
      "football": 1766,
      "wom": 1767,
      "##llow": 1768,
      "##ugg": 1769,
      "ash": 1770,
      "man_comma_": 1771,
      "aren": 1772,
      "##lf": 1773,
      "forever": 1774,
      "behind": 1775,
      "Ex": 1776,
      "Yep": 1777,
      "hun": 1778,
      "##sel": 1779,
      "##du": 1780,
      "insurance": 1781,
      "##ans": 1782,
      "chance": 1783,
      "consider": 1784,
      "##assing": 1785,
      "played": 1786,
      "jump": 1787,
      "##ular": 1788,
      "paying": 1789,
      "beaut": 1790,
      "##gic": 1791,
      "##er_comma_": 1792,
      "season": 1793,
      "sort": 1794,
      "##bb": 1795,
      "awesome_comma_": 1796,
      "Congrats": 1797,
      "Last": 1798,
      "pur": 1799,
      "##stal": 1800,
      "do_comma_": 1801,
      "##ross": 1802,
      "Awesome": 1803,
      "country": 1804,
      "100": 1805,
      "Very": 1806,
      "case": 1807,
      "mil": 1808,
      "yeah_comma_": 1809,
      "present": 1810,
      "book": 1811,
      "ple": 1812,
      "wear": 1813,
      "so_comma_": 1814,
      "state": 1815,
      "faith": 1816,
      "kinda": 1817,
      "remind": 1818,
      "##ristmas": 1819,
      "##iful": 1820,
      "As": 1821,
      "##ced": 1822,
      "##ens": 1823,
      "cost": 1824,
      "smell": 1825,
      "quickly": 1826,
      "ride": 1827,
      "##led": 1828,
      "##als": 1829,
      "agree_comma_": 1830,
      "To": 1831,
      "##uly": 1832,
      "##ities": 1833,
      "##anger": 1834,
      "weight": 1835,
      "completely": 1836,
      "##ically": 1837,
      "helps": 1838,
      "result": 1839,
      "Man": 1840,
      "##oor": 1841,
      "three": 1842,
      "repl": 1843,
      "guil": 1844,
      "ashamed": 1845,
      "fig": 1846,
      "lunch": 1847,
      "bud": 1848,
      "parent": 1849,
      "Aww": 1850,
      "position": 1851,
      "grade": 1852,
      "??": 1853,
      "##loy": 1854,
      "##een": 1855,
      "knows": 1856,
      "realize": 1857,
      "healthy": 1858,
      "##ese": 1859,
      "needs": 1860,
      "second": 1861,
      "studied": 1862,
      "beautiful": 1863,
      "Luck": 1864,
      "cur": 1865,
      "##ited": 1866,
      "goodness": 1867,
      "eventually": 1868,
      "inside": 1869,
      "cry": 1870,
      "war": 1871,
      "half": 1872,
      "along": 1873,
      "stole": 1874,
      "De": 1875,
      "##not": 1876,
      "entire": 1877,
      "sat": 1878,
      "wall": 1879,
      "##ib": 1880,
      "thanks": 1881,
      "perfect": 1882,
      "apartment": 1883,
      "##ru": 1884,
      "work_comma_": 1885,
      "learned": 1886,
      "animals": 1887,
      "video": 1888,
      "?!": 1889,
      "bar": 1890,
      "father": 1891,
      "##ex": 1892,
      "stink": 1893,
      "alright": 1894,
      "roll": 1895,
      "phot": 1896,
      "LOL": 1897,
      "pract": 1898,
      "shouldn": 1899,
      "taken": 1900,
      "Lol": 1901,
      "##ient": 1902,
      "##reet": 1903,
      "fell": 1904,
      "cover": 1905,
      "gener": 1906,
      "cause": 1907,
      "dark": 1908,
      "tast": 1909,
      "##ings": 1910,
      "nostal": 1911,
      "##ney": 1912,
      "irr": 1913,
      "##iced": 1914,
      "ass": 1915,
      "them_comma_": 1916,
      "clos": 1917,
      "puppy": 1918,
      "mid": 1919,
      "was_comma_": 1920,
      "save": 1921,
      "looks": 1922,
      "Cool": 1923,
      "cor": 1924,
      "##outh": 1925,
      "##ly_comma_": 1926,
      "Or": 1927,
      "bas": 1928,
      "poo": 1929,
      "##ative": 1930,
      "##ester": 1931,
      "weather": 1932,
      "walked": 1933,
      "Someone": 1934,
      "cal": 1935,
      "##cess": 1936,
      "lives": 1937,
      "girls": 1938,
      "running": 1939,
      "manager": 1940,
      "yard": 1941,
      "##iday": 1942,
      "##ics": 1943,
      "##irt": 1944,
      "##ants": 1945,
      "anyway": 1946,
      "window": 1947,
      "##ior": 1948,
      "##ons": 1949,
      "cannot": 1950,
      "Nothing": 1951,
      "av": 1952,
      "##mother": 1953,
      "cloth": 1954,
      "Ah": 1955,
      "##cus": 1956,
      "##fer": 1957,
      "step": 1958,
      "##ilar": 1959,
      "partner": 1960,
      "planned": 1961,
      "follow": 1962,
      "issues": 1963,
      "Nope": 1964,
      "People": 1965,
      "bra": 1966,
      "doll": 1967,
      "##hew": 1968,
      "read": 1969,
      "everyday": 1970,
      "finan": 1971,
      "accom": 1972,
      "respon": 1973,
      "hair": 1974,
      "##ange": 1975,
      "watched": 1976,
      "dream": 1977,
      "impressive": 1978,
      "cel": 1979,
      "nu": 1980,
      "though_comma_": 1981,
      "easier": 1982,
      "guilty": 1983,
      "IT": 1984,
      "red": 1985,
      "sy": 1986,
      "day_comma_": 1987,
      "single": 1988,
      "serv": 1989,
      "rece": 1990,
      "dev": 1991,
      "embarrassing": 1992,
      "coo": 1993,
      "dead": 1994,
      "short": 1995,
      "spent": 1996,
      "project": 1997,
      "final": 1998,
      "suppose": 1999,
      "employ": 2000,
      "minutes": 2001,
      "sal": 2002,
      "##gin": 2003,
      "##ouch": 2004,
      "wants": 2005,
      "saving": 2006,
      "local": 2007,
      "land": 2008,
      "##ual": 2009,
      "##bl": 2010,
      "lived": 2011,
      "abs": 2012,
      "##ateful": 2013,
      "truly": 2014,
      "prop": 2015,
      "add": 2016,
      "neighbors": 2017,
      "Un": 2018,
      "##gr": 2019,
      "##eace": 2020,
      "##eaking": 2021,
      "pregn": 2022,
      "drop": 2023,
      "cru": 2024,
      "celeb": 2025,
      "##sw": 2026,
      "##use": 2027,
      "Then": 2028,
      "sem": 2029,
      "deserve": 2030,
      "unfortunately": 2031,
      "sub": 2032,
      "grateful": 2033,
      "##ikes": 2034,
      "couldnt": 2035,
      "embarrassed": 2036,
      "disappoint": 2037,
      "##selves": 2038,
      "clothes": 2039,
      "accompl": 2040,
      "##ys": 2041,
      "loss": 2042,
      "##ured": 2043,
      "##rove": 2044,
      "keeps": 2045,
      "##fortable": 2046,
      "Go": 2047,
      "peace": 2048,
      "##te": 2049,
      "street": 2050,
      "##ffee": 2051,
      "strong": 2052,
      "poor": 2053,
      "box": 2054,
      "grandmother": 2055,
      "complain": 2056,
      "15": 2057,
      "rude": 2058,
      "seemed": 2059,
      "slow": 2060,
      "bur": 2061,
      "base": 2062,
      "##ph": 2063,
      "##rol": 2064,
      "chea": 2065,
      "fun_comma_": 2066,
      "mot": 2067,
      "##ivers": 2068,
      "accept": 2069,
      "stressful": 2070,
      "bills": 2071,
      "Will": 2072,
      "##oup": 2073,
      "##ishing": 2074,
      "appl": 2075,
      "telling": 2076,
      "relaxing": 2077,
      "dent": 2078,
      "lad": 2079,
      "sense": 2080,
      "touch": 2081,
      "wed": 2082,
      "envious": 2083,
      "coffee": 2084,
      "maj": 2085,
      "sitting": 2086,
      "younger": 2087,
      "##pid": 2088,
      "##dle": 2089,
      "##ging": 2090,
      "##reed": 2091,
      "##ital": 2092,
      "social": 2093,
      "expl": 2094,
      "Your": 2095,
      "opp": 2096,
      "Aw_comma_": 2097,
      "pictures": 2098,
      "accomplish": 2099,
      "Ugh": 2100,
      "top": 2101,
      "##ision": 2102,
      "steal": 2103,
      "build": 2104,
      "cred": 2105,
      "Nice_comma_": 2106,
      "coworker": 2107,
      "anxious": 2108,
      "##ric": 2109,
      "liked": 2110,
      "sport": 2111,
      "shopping": 2112,
      "major": 2113,
      "##its": 2114,
      "##ial": 2115,
      "beat": 2116,
      "truck": 2117,
      "swim": 2118,
      "realized": 2119,
      "Dang": 2120,
      "bother": 2121,
      "bath": 2122,
      "nep": 2123,
      "succ": 2124,
      "happening": 2125,
      "neighborhood": 2126,
      "mistake": 2127,
      "Luckily": 2128,
      "credit": 2129,
      "occ": 2130,
      "##ising": 2131,
      "##earch": 2132,
      "diet": 2133,
      "problems": 2134,
      "semester": 2135,
      "ev": 2136,
      "lar": 2137,
      "him_comma_": 2138,
      "band": 2139,
      "saying": 2140,
      "control": 2141,
      "honestly": 2142,
      "nephew": 2143,
      "Especially": 2144,
      "Fr": 2145,
      "power": 2146,
      "##ym": 2147,
      "threw": 2148,
      "##chool": 2149,
      "spo": 2150,
      "spr": 2151,
      "compet": 2152,
      "possible": 2153,
      "Christmas": 2154,
      "service": 2155,
      "disappointed": 2156,
      "##oc": 2157,
      "##ries": 2158,
      "##illed": 2159,
      "##ffic": 2160,
      "changed": 2161,
      "fear": 2162,
      "loud": 2163,
      "yell": 2164,
      "##ket": 2165,
      "##icious": 2166,
      "comput": 2167,
      "careful": 2168,
      "terrified": 2169,
      "Exactly": 2170,
      "success": 2171,
      "die": 2172,
      "ele": 2173,
      "shame": 2174,
      "plac": 2175,
      "growing": 2176,
      "unfortunate": 2177,
      "tickets": 2178,
      "nostalgic": 2179,
      "meal": 2180,
      "pie": 2181,
      "tur": 2182,
      "##oid": 2183,
      "##over": 2184,
      "become": 2185,
      "cats": 2186,
      "giving": 2187,
      "results": 2188,
      "Af": 2189,
      "Great": 2190,
      "nerve": 2191,
      "pri": 2192,
      "##ones": 2193,
      "##ots": 2194,
      "##osp": 2195,
      "strugg": 2196,
      "normal": 2197,
      "concert": 2198,
      "woman": 2199,
      "stinks": 2200,
      "math": 2201,
      "send": 2202,
      "##esh": 2203,
      "office": 2204,
      "quiet": 2205,
      "irrit": 2206,
      "air": 2207,
      "fit": 2208,
      "##cel": 2209,
      "star": 2210,
      "##tery": 2211,
      "somewhere": 2212,
      "##olor": 2213,
      "stupid": 2214,
      "##mmed": 2215,
      "turns": 2216,
      "contact": 2217,
      "impressed": 2218,
      "ordered": 2219,
      "choice": 2220,
      "disgusting": 2221,
      "hosp": 2222,
      "ke": 2223,
      "sign": 2224,
      "out_comma_": 2225,
      "##ments": 2226,
      "bless": 2227,
      "across": 2228,
      "contin": 2229,
      "secret": 2230,
      "Everyone": 2231,
      "cous": 2232,
      "##tle": 2233,
      "##ipped": 2234,
      "cancer": 2235,
      "##ility": 2236,
      "talked": 2237,
      "indeed": 2238,
      "##form": 2239,
      "MY": 2240,
      "dress": 2241,
      "tired": 2242,
      "##hile": 2243,
      "##ication": 2244,
      "nice_comma_": 2245,
      "bummer": 2246,
      "##pected": 2247,
      "enjoyed": 2248,
      "wedding": 2249,
      "cousin": 2250,
      "ya": 2251,
      "longer": 2252,
      "fault": 2253,
      "relie": 2254,
      "##rem": 2255,
      "##eless": 2256,
      "eng": 2257,
      "blame": 2258,
      "middle": 2259,
      "due": 2260,
      "gym": 2261,
      "hom": 2262,
      "mea": 2263,
      "##ental": 2264,
      "losing": 2265,
      "asking": 2266,
      "awhile": 2267,
      "Hey": 2268,
      "speak": 2269,
      "##olved": 2270,
      "week_comma_": 2271,
      "quit": 2272,
      "shows": 2273,
      "buddy": 2274,
      "pregnant": 2275,
      "Like": 2276,
      "cand": 2277,
      "##cle": 2278,
      "##io": 2279,
      "##gan": 2280,
      "##ks": 2281,
      "##rious": 2282,
      "job_comma_": 2283,
      "unex": 2284,
      "true_comma_": 2285,
      "opt": 2286,
      "pot": 2287,
      "rather": 2288,
      "gosh": 2289,
      "chick": 2290,
      "everywhere": 2291,
      "pray": 2292,
      "cool_comma_": 2293,
      "leaving": 2294,
      "certainly": 2295,
      "Gl": 2296,
      "Pro": 2297,
      "pants": 2298,
      "sell": 2299,
      "##ysic": 2300,
      "##atur": 2301,
      "##unity": 2302,
      "mail": 2303,
      "earl": 2304,
      "finished": 2305,
      "replace": 2306,
      "meant": 2307,
      "cash": 2308,
      "hol": 2309,
      "wer": 2310,
      "##ses": 2311,
      "ant": 2312,
      "trash": 2313,
      "gra": 2314,
      "##idence": 2315,
      "noticed": 2316,
      "bare": 2317,
      "cars": 2318,
      "luckily": 2319,
      "large": 2320,
      "Most": 2321,
      "answ": 2322,
      "lottery": 2323,
      "prof": 2324,
      "helping": 2325,
      "report": 2326,
      "born": 2327,
      "absolutely": 2328,
      "##ah": 2329,
      "##ived": 2330,
      "##ber": 2331,
      "##rect": 2332,
      "qual": 2333,
      "sever": 2334,
      "deli": 2335,
      "After": 2336,
      "##rate": 2337,
      "##ssed": 2338,
      "her_comma_": 2339,
      "saved": 2340,
      "missing": 2341,
      "means": 2342,
      "attention": 2343,
      "##ified": 2344,
      "Ind": 2345,
      "pat": 2346,
      "##cery": 2347,
      "##unt": 2348,
      "stopped": 2349,
      "fixed": 2350,
      "teacher": 2351,
      "bathroom": 2352,
      "earlier": 2353,
      "Never": 2354,
      "brand": 2355,
      "dest": 2356,
      "gh": 2357,
      "ice": 2358,
      "lit": 2359,
      "##iting": 2360,
      "##cks": 2361,
      "##ili": 2362,
      "death": 2363,
      "So_comma_": 2364,
      "attack": 2365,
      "broken": 2366,
      "##sib": 2367,
      "delicious": 2368,
      "cheap": 2369,
      "##ze": 2370,
      "##ices": 2371,
      "##ade": 2372,
      "partic": 2373,
      "grocery": 2374,
      "Glad": 2375,
      "main": 2376,
      "wood": 2377,
      "##cing": 2378,
      "amount": 2379,
      "##olate": 2380,
      "starts": 2381,
      "parking": 2382,
      "du": 2383,
      "dou": 2384,
      "val": 2385,
      "wasnt": 2386,
      "knock": 2387,
      "sure_comma_": 2388,
      "there_comma_": 2389,
      "manage": 2390,
      "trans": 2391,
      "feelings": 2392,
      "adult": 2393,
      "hahaha": 2394,
      "cleaning": 2395,
      "learning": 2396,
      "roomm": 2397,
      "curr": 2398,
      "cop": 2399,
      "rand": 2400,
      "##vy": 2401,
      "##mer": 2402,
      "putting": 2403,
      "traffic": 2404,
      "issue": 2405,
      "places": 2406,
      "30": 2407,
      "Of": 2408,
      "Sh": 2409,
      "bank": 2410,
      "tv": 2411,
      "##cu": 2412,
      "loves": 2413,
      "up_comma_": 2414,
      "bad_comma_": 2415,
      "decision": 2416,
      "pets": 2417,
      "terrifying": 2418,
      "computer": 2419,
      "unexpected": 2420,
      "weren": 2421,
      "TV": 2422,
      "ill": 2423,
      "line": 2424,
      "pool": 2425,
      "joy": 2426,
      "deg": 2427,
      "jobs": 2428,
      "black": 2429,
      "camer": 2430,
      "##iety": 2431,
      "random": 2432,
      "Abs": 2433,
      "Uh": 2434,
      "Yup": 2435,
      "cau": 2436,
      "##reep": 2437,
      "##eld": 2438,
      "stuck": 2439,
      "group": 2440,
      "missed": 2441,
      "buying": 2442,
      "hospital": 2443,
      "danger": 2444,
      "fing": 2445,
      "##mon": 2446,
      "stra": 2447,
      "##astic": 2448,
      "themselves": 2449,
      "memory": 2450,
      "similar": 2451,
      "50": 2452,
      "Fl": 2453,
      "rent": 2454,
      "##ta": 2455,
      "##inting": 2456,
      "lie": 2457,
      "sun": 2458,
      "sha": 2459,
      "worker": 2460,
      "driver": 2461,
      "expected": 2462,
      "advice": 2463,
      "scratch": 2464,
      "Absolutely": 2465,
      "ben": 2466,
      "creep": 2467,
      "dish": 2468,
      "ob": 2469,
      "##reen": 2470,
      "##reck": 2471,
      "beha": 2472,
      "##pping": 2473,
      "Which": 2474,
      "cold": 2475,
      "##itchen": 2476,
      "200": 2477,
      "fact": 2478,
      "body": 2479,
      "classes": 2480,
      "New": 2481,
      "gar": 2482,
      "kitchen": 2483,
      "##land": 2484,
      "afterwards": 2485,
      "blood": 2486,
      "drunk": 2487,
      "cheated": 2488,
      "prepare": 2489,
      "smo": 2490,
      "emotion": 2491,
      "##blic": 2492,
      "##ida": 2493,
      "bag": 2494,
      "wanting": 2495,
      "stayed": 2496,
      "pull": 2497,
      "skill": 2498,
      "apolog": 2499,
      "storm": 2500,
      "extrem": 2501,
      "words": 2502,
      "Trump": 2503,
      "eyes": 2504,
      "ahead": 2505,
      "avoid": 2506,
      "Probably": 2507,
      "Right": 2508,
      "Yikes": 2509,
      "eff": 2510,
      "fil": 2511,
      "gas": 2512,
      "##ove": 2513,
      "##orida": 2514,
      "##ids": 2515,
      "##ters": 2516,
      "ago_comma_": 2517,
      "physic": 2518,
      "given": 2519,
      "story": 2520,
      "wallet": 2521,
      "roller": 2522,
      "ghost": 2523,
      "Hi": 2524,
      "wreck": 2525,
      "##iving": 2526,
      "##nday": 2527,
      "fresh": 2528,
      "clear": 2529,
      "doesnt": 2530,
      "Thanks_comma_": 2531,
      "mostly": 2532,
      "Because": 2533,
      "miles": 2534,
      "devast": 2535,
      "barely": 2536,
      "effort": 2537,
      "Ne": 2538,
      "Ok": 2539,
      "jer": 2540,
      "##ccer": 2541,
      "##ible": 2542,
      "whatever": 2543,
      "school_comma_": 2544,
      "adm": 2545,
      "strange": 2546,
      "student": 2547,
      "choc": 2548,
      "training": 2549,
      "syst": 2550,
      "doubt": 2551,
      "et": 2552,
      "##fl": 2553,
      "##ering": 2554,
      "sol": 2555,
      "feed": 2556,
      "one_comma_": 2557,
      "hasn": 2558,
      "keeping": 2559,
      "regret": 2560,
      "congratulations": 2561,
      "hungry": 2562,
      "figure": 2563,
      "18": 2564,
      "Ah_comma_": 2565,
      "bon": 2566,
      "borrow": 2567,
      "song": 2568,
      "##uch": 2569,
      "##edu": 2570,
      "notice": 2571,
      "art": 2572,
      "quest": 2573,
      "relate": 2574,
      "human": 2575,
      "grandma": 2576,
      "ach": 2577,
      "color": 2578,
      "nast": 2579,
      "##con": 2580,
      "##time": 2581,
      "##ub": 2582,
      "##ien": 2583,
      "##hh": 2584,
      "##work": 2585,
      "soccer": 2586,
      "##iss": 2587,
      "##riage": 2588,
      "trick": 2589,
      "leg": 2590,
      "process": 2591,
      "surg": 2592,
      "travel": 2593,
      "staying": 2594,
      "woke": 2595,
      "yet_comma_": 2596,
      "fire": 2597,
      "coworkers": 2598,
      "depress": 2599,
      "congrats": 2600,
      "graduated": 2601,
      "motiv": 2602,
      "chicken": 2603,
      "etc": 2604,
      "Dis": 2605,
      "creat": 2606,
      "kick": 2607,
      "##ator": 2608,
      "begin": 2609,
      "refu": 2610,
      "harder": 2611,
      "##cif": 2612,
      "stressed": 2613,
      "Everything": 2614,
      "incred": 2615,
      "disappointing": 2616,
      "Definitely": 2617,
      "number": 2618,
      "degree": 2619,
      "##a_comma_": 2620,
      "##den": 2621,
      "##gu": 2622,
      "knowing": 2623,
      "betw": 2624,
      "Yesterday": 2625,
      "ground": 2626,
      "cheat": 2627,
      "intern": 2628,
      "invest": 2629,
      "anxiety": 2630,
      "shoes": 2631,
      "12": 2632,
      "pop": 2633,
      "tend": 2634,
      "##sc": 2635,
      "##itude": 2636,
      "ste": 2637,
      "stick": 2638,
      "reward": 2639,
      "share": 2640,
      "allow": 2641,
      "anywhere": 2642,
      "year_comma_": 2643,
      "##istic": 2644,
      "blast": 2645,
      "okay_comma_": 2646,
      "pump": 2647,
      "confidence": 2648,
      "specif": 2649,
      "Being": 2650,
      "picked": 2651,
      "camping": 2652,
      "accidentally": 2653,
      "celebrate": 2654,
      "chocolate": 2655,
      "Our": 2656,
      "bat": 2657,
      "fant": 2658,
      "##ets": 2659,
      "cancel": 2660,
      "alive": 2661,
      "yours": 2662,
      "himself": 2663,
      "ball": 2664,
      "scare": 2665,
      "respect": 2666,
      "dangerous": 2667,
      "system": 2668,
      "surgery": 2669,
      "between": 2670,
      "bear": 2671,
      "det": 2672,
      "ten": 2673,
      "##book": 2674,
      "##yle": 2675,
      "##ature": 2676,
      "not_comma_": 2677,
      "way_comma_": 2678,
      "using": 2679,
      "adop": 2680,
      "cream": 2681,
      "thankfully": 2682,
      "Awww": 2683,
      "tech": 2684,
      "repair": 2685,
      "lady": 2686,
      "Pl": 2687,
      "cup": 2688,
      "deep": 2689,
      "##ron": 2690,
      "##bies": 2691,
      "ther": 2692,
      "thri": 2693,
      "##ouse": 2694,
      "##coming": 2695,
      "##key": 2696,
      "##ustom": 2697,
      "comfortable": 2698,
      "appro": 2699,
      "wont": 2700,
      "personal": 2701,
      "crash": 2702,
      "public": 2703,
      "Even": 2704,
      "Keep": 2705,
      "Would": 2706,
      "pays": 2707,
      "##kward": 2708,
      "##ency": 2709,
      "apply": 2710,
      "annoyed": 2711,
      "handle": 2712,
      "photos": 2713,
      "assum": 2714,
      "cooking": 2715,
      "opport": 2716,
      "Has": 2717,
      "##bit": 2718,
      "##mally": 2719,
      "reading": 2720,
      "##mbers": 2721,
      "against": 2722,
      "terrible_comma_": 2723,
      "content": 2724,
      "involved": 2725,
      "dollars": 2726,
      "##ems": 2727,
      "##erc": 2728,
      "inj": 2729,
      "##ises": 2730,
      "loan": 2731,
      "##antly": 2732,
      "awkward": 2733,
      "house_comma_": 2734,
      "profess": 2735,
      "Makes": 2736,
      "grew": 2737,
      "lay": 2738,
      "##to": 2739,
      "##icking": 2740,
      "sudd": 2741,
      "alot": 2742,
      "workers": 2743,
      "moments": 2744,
      "winning": 2745,
      "failed": 2746,
      "cruise": 2747,
      "explain": 2748,
      "bonus": 2749,
      "sudden": 2750,
      "says": 2751,
      "##de": 2752,
      "##ins": 2753,
      "##aring": 2754,
      "reach": 2755,
      "hopeful": 2756,
      "much_comma_": 2757,
      "switch": 2758,
      "##intend": 2759,
      "speed": 2760,
      "sentim": 2761,
      "financial": 2762,
      "dropped": 2763,
      "nasty": 2764,
      "Same": 2765,
      "cried": 2766,
      "custom": 2767,
      "dating": 2768,
      "sand": 2769,
      "##isf": 2770,
      "##urch": 2771,
      "const": 2772,
      "level": 2773,
      "But_comma_": 2774,
      "talent": 2775,
      "focus": 2776,
      "bird": 2777,
      "proper": 2778,
      "applied": 2779,
      "Must": 2780,
      "Mond": 2781,
      "low": 2782,
      "##bby": 2783,
      "##ining": 2784,
      "shirt": 2785,
      "arri": 2786,
      "coaster": 2787,
      "grown": 2788,
      "graduate": 2789,
      "received": 2790,
      "occas": 2791,
      "particular": 2792,
      "##intendo": 2793,
      "rare": 2794,
      "wra": 2795,
      "##old": 2796,
      "##ald": 2797,
      "##ef": 2798,
      "##ront": 2799,
      "##ums": 2800,
      "##ives": 2801,
      "##mage": 2802,
      "##oted": 2803,
      "my_comma_": 2804,
      "lied": 2805,
      "##rib": 2806,
      "noise": 2807,
      "right_comma_": 2808,
      "sucks_comma_": 2809,
      "invited": 2810,
      "distance": 2811,
      "satisf": 2812,
      "Unfortun": 2813,
      "dumb": 2814,
      "13": 2815,
      "See": 2816,
      "boo": 2817,
      "ways": 2818,
      "##aw": 2819,
      "##nam": 2820,
      "##gue": 2821,
      "##gress": 2822,
      "##ote": 2823,
      "likes": 2824,
      "##though": 2825,
      "lock": 2826,
      "spot": 2827,
      "cond": 2828,
      "grandp": 2829,
      "temp": 2830,
      "Haha_comma_": 2831,
      "eye": 2832,
      "##ology": 2833,
      "Going": 2834,
      "sna": 2835,
      "tour": 2836,
      "##oon": 2837,
      "beer": 2838,
      "feet": 2839,
      "##roy": 2840,
      "##olen": 2841,
      "track": 2842,
      "emerg": 2843,
      "minute": 2844,
      "piece": 2845,
      "##edule": 2846,
      "25": 2847,
      "post": 2848,
      "##how": 2849,
      "##ered": 2850,
      "babies": 2851,
      "church": 2852,
      "debt": 2853,
      "crush": 2854,
      "attitude": 2855,
      "lazy": 2856,
      "experien": 2857,
      "paper": 2858,
      "lesson": 2859,
      "boring": 2860,
      "returned": 2861,
      "School": 2862,
      "mill": 2863,
      "ugh": 2864,
      "##oint": 2865,
      "##mg": 2866,
      "##uts": 2867,
      "asleep": 2868,
      "##haps": 2869,
      "cheating": 2870,
      "teen": 2871,
      "spending": 2872,
      "mistakes": 2873,
      "killed": 2874,
      "Indeed": 2875,
      "roommate": 2876,
      "extremely": 2877,
      "Monday": 2878,
      "Got": 2879,
      "Life": 2880,
      "Tell": 2881,
      "lead": 2882,
      "tip": 2883,
      "##sy": 2884,
      "##gest": 2885,
      "exerc": 2886,
      "prefer": 2887,
      "produ": 2888,
      "recover": 2889,
      "floor": 2890,
      "pulled": 2891,
      "gives": 2892,
      "hum": 2893,
      "marriage": 2894,
      "easily": 2895,
      "depend": 2896,
      "offered": 2897,
      "Ouch": 2898,
      "##res": 2899,
      "tho": 2900,
      "##ory": 2901,
      "items": 2902,
      "##oof": 2903,
      "lif": 2904,
      "twice": 2905,
      "flying": 2906,
      "Aww_comma_": 2907,
      "taste": 2908,
      "key": 2909,
      "destroy": 2910,
      "Mine": 2911,
      "Try": 2912,
      "aut": 2913,
      "ca": 2914,
      "pan": 2915,
      "##orn": 2916,
      "fort": 2917,
      "##ado": 2918,
      "life_comma_": 2919,
      "cheese": 2920,
      "mean_comma_": 2921,
      "messed": 2922,
      "##bbed": 2923,
      "sports": 2924,
      "Unfortunately": 2925,
      "bright": 2926,
      "four": 2927,
      "fishing": 2928,
      "rush": 2929,
      "##ats": 2930,
      "##erally": 2931,
      "##erved": 2932,
      "##ster": 2933,
      "years_comma_": 2934,
      "enter": 2935,
      "swe": 2936,
      "blue": 2937,
      "decent": 2938,
      "checked": 2939,
      "##ergy": 2940,
      "scream": 2941,
      "purch": 2942,
      "Florida": 2943,
      "fantastic": 2944,
      "cro": 2945,
      "horr": 2946,
      "##what": 2947,
      "really_comma_": 2948,
      "lovely": 2949,
      "oh_comma_": 2950,
      "showed": 2951,
      "snake": 2952,
      "pleas": 2953,
      "relief": 2954,
      "OH": 2955,
      "Wor": 2956,
      "aunt": 2957,
      "burn": 2958,
      "fat": 2959,
      "hea": 2960,
      "mix": 2961,
      "vet": 2962,
      "wake": 2963,
      "##yal": 2964,
      "##ges": 2965,
      "##ines": 2966,
      "but_comma_": 2967,
      "loyal": 2968,
      "herself": 2969,
      "prov": 2970,
      "family_comma_": 2971,
      "today_comma_": 2972,
      "research": 2973,
      "amazing_comma_": 2974,
      "instru": 2975,
      "baseball": 2976,
      "Disney": 2977,
      "An": 2978,
      "God": 2979,
      "Mar": 2980,
      "OK": 2981,
      "Sp": 2982,
      "dude": 2983,
      "mort": 2984,
      "##bout": 2985,
      "##AT": 2986,
      "##VE": 2987,
      "stom": 2988,
      "ref": 2989,
      "##eech": 2990,
      "##allow": 2991,
      "kids_comma_": 2992,
      "Thankfully": 2993,
      "sad_comma_": 2994,
      "myself_comma_": 2995,
      "furious": 2996,
      "gifts": 2997,
      "normally": 2998,
      "drag": 2999,
      "techn": 3000,
      "40": 3001,
      "odd": 3002,
      "taught": 3003,
      "##pet": 3004,
      "towards": 3005,
      "##ended": 3006,
      "exp": 3007,
      "finding": 3008,
      "hands": 3009,
      "brings": 3010,
      "ruined": 3011,
      "damage": 3012,
      "presentation": 3013,
      "competition": 3014,
      "gun": 3015,
      "##ube": 3016,
      "##iny": 3017,
      "gotta": 3018,
      "##itten": 3019,
      "##arden": 3020,
      "rock": 3021,
      "career": 3022,
      "winter": 3023,
      "rug": 3024,
      "reminded": 3025,
      "basically": 3026,
      "continue": 3027,
      "occasion": 3028,
      "Get": 3029,
      "Make": 3030,
      "cu": 3031,
      "nur": 3032,
      "tre": 3033,
      "##pes": 3034,
      "##med": 3035,
      "##xic": 3036,
      "tor": 3037,
      "##eams": 3038,
      "bey": 3039,
      "##icip": 3040,
      "##irty": 3041,
      "hard_comma_": 3042,
      "helpful": 3043,
      "glass": 3044,
      "confront": 3045,
      "sleeping": 3046,
      "picture": 3047,
      "subject": 3048,
      "specific": 3049,
      "19": 3050,
      "16": 3051,
      "Br": 3052,
      "Kind": 3053,
      "##tain": 3054,
      "##oun": 3055,
      "##cell": 3056,
      "shot": 3057,
      "##rage": 3058,
      "friend_comma_": 3059,
      "badly": 3060,
      "def": 3061,
      "bigger": 3062,
      "##nect": 3063,
      "headed": 3064,
      "charac": 3065,
      "empty": 3066,
      "jumped": 3067,
      "crying": 3068,
      "accomplishment": 3069,
      "several": 3070,
      "emotional": 3071,
      "internet": 3072,
      "14": 3073,
      "bow": 3074,
      "hide": 3075,
      "mouth": 3076,
      "##back": 3077,
      "##urity": 3078,
      "organ": 3079,
      "##ilities": 3080,
      "speech": 3081,
      "improve": 3082,
      "dru": 3083,
      "daughters": 3084,
      "Still": 3085,
      "True": 3086,
      "candy": 3087,
      "fortun": 3088,
      "crossed": 3089,
      "About": 3090,
      "Thing": 3091,
      "match": 3092,
      "##ii": 3093,
      "##iest": 3094,
      "##gar": 3095,
      "##..": 3096,
      "toys": 3097,
      "waste": 3098,
      "##ides": 3099,
      "##arents": 3100,
      "##els": 3101,
      "##issed": 3102,
      "known": 3103,
      "##herish": 3104,
      "score": 3105,
      "convers": 3106,
      "biggest": 3107,
      "drivers": 3108,
      "flight": 3109,
      "insp": 3110,
      "market": 3111,
      "heartb": 3112,
      "shoot": 3113,
      "package": 3114,
      "accepted": 3115,
      "current": 3116,
      "devastated": 3117,
      "opportunity": 3118,
      "Per": 3119,
      "ris": 3120,
      "##aking": 3121,
      "##ded": 3122,
      "##kely": 3123,
      "neg": 3124,
      "note": 3125,
      "energy": 3126,
      "couch": 3127,
      "disc": 3128,
      "painful": 3129,
      "drinking": 3130,
      "regular": 3131,
      "practice": 3132,
      "building": 3133,
      "swimming": 3134,
      "Friday": 3135,
      "anticip": 3136,
      "sentimental": 3137,
      "Amer": 3138,
      "chat": 3139,
      "ign": 3140,
      "squ": 3141,
      "t_comma_": 3142,
      "##lies": 3143,
      "##ety": 3144,
      "##ooo": 3145,
      "review": 3146,
      "shel": 3147,
      "##izing": 3148,
      "##ager": 3149,
      "grades": 3150,
      "security": 3151,
      "course_comma_": 3152,
      "faithful": 3153,
      "photo": 3154,
      "general": 3155,
      "jerk": 3156,
      "achieve": 3157,
      "horror": 3158,
      "Americ": 3159,
      "cart": 3160,
      "jud": 3161,
      "##used": 3162,
      "##wich": 3163,
      "##ison": 3164,
      "##amn": 3165,
      "reci": 3166,
      "requ": 3167,
      "affect": 3168,
      "crow": 3169,
      "201": 3170,
      "wearing": 3171,
      "Today": 3172,
      "##iversity": 3173,
      "literally": 3174,
      "stomach": 3175,
      "beyond": 3176,
      "His": 3177,
      "NO": 3178,
      "natur": 3179,
      "##oul": 3180,
      "##ato": 3181,
      "inform": 3182,
      "heat": 3183,
      "##ulous": 3184,
      "see_comma_": 3185,
      "carry": 3186,
      "pride": 3187,
      "nerves": 3188,
      "trusted": 3189,
      "lawn": 3190,
      "text": 3191,
      "laughing": 3192,
      "dentist": 3193,
      "turning": 3194,
      "Things": 3195,
      "bot": 3196,
      "drove": 3197,
      "fright": 3198,
      "pun": 3199,
      "push": 3200,
      "vom": 3201,
      "##port": 3202,
      "##atic": 3203,
      "##arently": 3204,
      "sold": 3205,
      "##enty": 3206,
      "gold": 3207,
      "hell": 3208,
      "##cious": 3209,
      "away_comma_": 3210,
      "hurric": 3211,
      "promised": 3212,
      "court": 3213,
      "engine": 3214,
      "homeless": 3215,
      "straight": 3216,
      "behav": 3217,
      "therap": 3218,
      "profession": 3219,
      "sandwich": 3220,
      "Eng": 3221,
      "Ive": 3222,
      "dang": 3223,
      "five": 3224,
      "##vered": 3225,
      "react": 3226,
      "wouldnt": 3227,
      "supplies": 3228,
      "field": 3229,
      "perfor": 3230,
      "##duc": 3231,
      "pooped": 3232,
      "elect": 3233,
      "stepped": 3234,
      "product": 3235,
      "torn": 3236,
      "Her": 3237,
      "immed": 3238,
      "wild": 3239,
      "##eaked": 3240,
      "bec": 3241,
      "##lew": 3242,
      "##amp": 3243,
      "recom": 3244,
      "alb": 3245,
      "##eez": 3246,
      "hadn": 3247,
      "all_comma_": 3248,
      "tax": 3249,
      "plane": 3250,
      "trave": 3251,
      "stranger": 3252,
      "Hahaha": 3253,
      "managed": 3254,
      "Super": 3255,
      "irritated": 3256,
      "immedi": 3257,
      "Kids": 3258,
      "##ors": 3259,
      "style": 3260,
      "stolen": 3261,
      "##adays": 3262,
      "goal": 3263,
      "##cking": 3264,
      "##anted": 3265,
      "##ilt": 3266,
      "closed": 3267,
      "car_comma_": 3268,
      "bummed": 3269,
      "mach": 3270,
      "unless": 3271,
      "calling": 3272,
      "food_comma_": 3273,
      "decide": 3274,
      "contest": 3275,
      "##whel": 3276,
      "opened": 3277,
      "##ibling": 3278,
      "caused": 3279,
      "question": 3280,
      "emergency": 3281,
      "recomm": 3282,
      ".\"": 3283,
      "Pret": 3284,
      "pe": 3285,
      "##ination": 3286,
      "toil": 3287,
      "##onald": 3288,
      "##ites": 3289,
      "am_comma_": 3290,
      "shut": 3291,
      "somewhat": 3292,
      "saf": 3293,
      "overwhel": 3294,
      "block": 3295,
      "flood": 3296,
      "##ountain": 3297,
      "media": 3298,
      "disgusted": 3299,
      "holding": 3300,
      "poop": 3301,
      "spray": 3302,
      "fingers": 3303,
      "million": 3304,
      "Too": 3305,
      "Time": 3306,
      "hy": 3307,
      "##otect": 3308,
      "alar": 3309,
      "clim": 3310,
      "home_comma_": 3311,
      "unl": 3312,
      "unf": 3313,
      "surv": 3314,
      "deserved": 3315,
      "visiting": 3316,
      "appreciated": 3317,
      "exams": 3318,
      "laughed": 3319,
      "women": 3320,
      "figured": 3321,
      "calm": 3322,
      "dollar": 3323,
      "Dang_comma_": 3324,
      "answer": 3325,
      "creepy": 3326,
      "Pretty": 3327,
      "--": 3328,
      "TH": 3329,
      "fish": 3330,
      "lic": 3331,
      "men": 3332,
      "nail": 3333,
      "pee": 3334,
      "##vis": 3335,
      "##eg": 3336,
      "##father": 3337,
      "shi": 3338,
      "somehow": 3339,
      "thing_comma_": 3340,
      "price": 3341,
      "progr": 3342,
      "progress": 3343,
      "night_comma_": 3344,
      "appoint": 3345,
      "smash": 3346,
      "pair": 3347,
      "interested": 3348,
      "closer": 3349,
      "successful": 3350,
      "program": 3351,
      "Gu": 3352,
      "SO": 3353,
      "sea": 3354,
      "tiny": 3355,
      "havent": 3356,
      "neat": 3357,
      "butt": 3358,
      "##tern": 3359,
      "whats": 3360,
      "freaked": 3361,
      "chall": 3362,
      "##ational": 3363,
      "back_comma_": 3364,
      "record": 3365,
      "dread": 3366,
      "resc": 3367,
      "enjoying": 3368,
      "idea_comma_": 3369,
      "insane": 3370,
      "cleaned": 3371,
      "passion": 3372,
      "common": 3373,
      "Only": 3374,
      "Once": 3375,
      "Yep_comma_": 3376,
      "toilet": 3377,
      "Sure": 3378,
      "garden": 3379,
      "hes": 3380,
      "mood": 3381,
      "op": 3382,
      "pissed": 3383,
      "##eas": 3384,
      "##pose": 3385,
      "##wor": 3386,
      "##ES": 3387,
      "##omed": 3388,
      "wash": 3389,
      "goals": 3390,
      "##pper": 3391,
      "##ther": 3392,
      "##ames": 3393,
      "nowadays": 3394,
      "sometime": 3395,
      "space": 3396,
      "protect": 3397,
      "argu": 3398,
      "kinds": 3399,
      "better_comma_": 3400,
      "fired": 3401,
      "intro": 3402,
      "nightma": 3403,
      "days_comma_": 3404,
      "situ": 3405,
      "attend": 3406,
      "sisters": 3407,
      "snack": 3408,
      "doctors": 3409,
      "cards": 3410,
      "pleased": 3411,
      "responsib": 3412,
      "behavior": 3413,
      "\".": 3414,
      "Bet": 3415,
      "Ho": 3416,
      "Nintendo": 3417,
      "bike": 3418,
      "##iod": 3419,
      "##gia": 3420,
      "##ky": 3421,
      "##etic": 3422,
      "##icle": 3423,
      "are_comma_": 3424,
      "whenever": 3425,
      "somebody": 3426,
      "Hey_comma_": 3427,
      "carpet": 3428,
      "breaking": 3429,
      "loose": 3430,
      "coun": 3431,
      "table": 3432,
      "here_comma_": 3433,
      "times_comma_": 3434,
      "##000": 3435,
      "##ptop": 3436,
      "period": 3437,
      "laptop": 3438,
      "account": 3439,
      "god_comma_": 3440,
      "hanging": 3441,
      "correct": 3442,
      "spoil": 3443,
      "exercise": 3444,
      "##cellent": 3445,
      "challen": 3446,
      "Co": 3447,
      "Cl": 3448,
      "Sma": 3449,
      "Wo": 3450,
      "With": 3451,
      "cir": 3452,
      "cherish": 3453,
      "mention": 3454,
      "six": 3455,
      "tear": 3456,
      "##wise": 3457,
      "##erm": 3458,
      "##iders": 3459,
      "##ute": 3460,
      "##lex": 3461,
      "##icer": 3462,
      "likely": 3463,
      "above": 3464,
      "understandable": 3465,
      "scary_comma_": 3466,
      "tripped": 3467,
      "huh": 3468,
      "hurts": 3469,
      "grandfather": 3470,
      "covered": 3471,
      "holiday": 3472,
      "World": 3473,
      "frighten": 3474,
      "cent": 3475,
      "dump": 3476,
      "ed": 3477,
      "filled": 3478,
      "hid": 3479,
      "sibling": 3480,
      "vers": 3481,
      "##aly": 3482,
      "##light": 3483,
      "##lish": 3484,
      "##yard": 3485,
      "##asing": 3486,
      "except": 3487,
      "freak": 3488,
      "spider": 3489,
      "bull": 3490,
      "uncom": 3491,
      "brothers": 3492,
      "##ached": 3493,
      "boat": 3494,
      "##board": 3495,
      "books": 3496,
      "yelled": 3497,
      "camera": 3498,
      "Next": 3499,
      "wracking": 3500,
      "license": 3501,
      "Could": 3502,
      "Fin": 3503,
      "breat": 3504,
      "breed": 3505,
      "dirty": 3506,
      "egg": 3507,
      "educ": 3508,
      "ow": 3509,
      "path": 3510,
      "si": 3511,
      "till": 3512,
      "##o_comma_": 3513,
      "##che": 3514,
      "to_comma_": 3515,
      "##ored": 3516,
      "##kemon": 3517,
      "##imistic": 3518,
      "white": 3519,
      "sugar": 3520,
      "##ulation": 3521,
      "##olars": 3522,
      "uncle": 3523,
      "before_comma_": 3524,
      "again_comma_": 3525,
      "annivers": 3526,
      "board": 3527,
      "fine_comma_": 3528,
      "bringing": 3529,
      "medical": 3530,
      "addict": 3531,
      "skills": 3532,
      "Hi_comma_": 3533,
      "became": 3534,
      "##olarship": 3535,
      "Bl": 3536,
      "Che": 3537,
      "Sw": 3538,
      "US": 3539,
      "hi": 3540,
      "lim": 3541,
      "##emp": 3542,
      "##gers": 3543,
      "##!!": 3544,
      "##idays": 3545,
      "inf": 3546,
      "##icing": 3547,
      "##iculous": 3548,
      "stock": 3549,
      "within": 3550,
      "hearing": 3551,
      "things_comma_": 3552,
      "spilled": 3553,
      "ok_comma_": 3554,
      "miser": 3555,
      "shower": 3556,
      "weekend_comma_": 3557,
      "flow": 3558,
      "owner": 3559,
      "earth": 3560,
      "stories": 3561,
      "##velop": 3562,
      "ruin": 3563,
      "simple": 3564,
      "Always": 3565,
      "listening": 3566,
      "basement": 3567,
      "refund": 3568,
      "conversation": 3569,
      "performan": 3570,
      "immediately": 3571,
      "appointment": 3572,
      "situations": 3573,
      "fre": 3574,
      "search": 3575,
      "tree": 3576,
      "##pond": 3577,
      "##zz": 3578,
      "##omb": 3579,
      "##ensive": 3580,
      "##least": 3581,
      "supr": 3582,
      "rema": 3583,
      "reun": 3584,
      "loving": 3585,
      "nose": 3586,
      "speaking": 3587,
      "veh": 3588,
      "bucks": 3589,
      "off_comma_": 3590,
      "scholarship": 3591,
      "university": 3592,
      "Happy": 3593,
      "##aced": 3594,
      "acting": 3595,
      "respond": 3596,
      "upsetting": 3597,
      "fond": 3598,
      "trusting": 3599,
      "Something": 3600,
      "charge": 3601,
      "falling": 3602,
      "Man_comma_": 3603,
      "struggling": 3604,
      "patient": 3605,
      "value": 3606,
      "adopt": 3607,
      "customer": 3608,
      "recommend": 3609,
      "En": 3610,
      "Mc": 3611,
      "Sc": 3612,
      "Tw": 3613,
      "Take": 3614,
      "cas": 3615,
      "mountain": 3616,
      "pit": 3617,
      "roof": 3618,
      "##ob": 3619,
      "##care": 3620,
      "##mail": 3621,
      "##owing": 3622,
      "meat": 3623,
      "will_comma_": 3624,
      "christmas": 3625,
      "##itted": 3626,
      "feeling_comma_": 3627,
      "recog": 3628,
      "promoted": 3629,
      "awful_comma_": 3630,
      "difference": 3631,
      "retire": 3632,
      "##airs": 3633,
      "Sunday": 3634,
      "purpose": 3635,
      "##iliar": 3636,
      "benef": 3637,
      "incredible": 3638,
      "pumped": 3639,
      "satisfied": 3640,
      "tournam": 3641,
      "shelter": 3642,
      "rescue": 3643,
      "recogn": 3644,
      "Bu": 3645,
      "ep": 3646,
      "fart": 3647,
      "gri": 3648,
      "gain": 3649,
      "ive": 3650,
      "lying": 3651,
      "##LL": 3652,
      "##inter": 3653,
      "##enior": 3654,
      "##ether": 3655,
      "##uth": 3656,
      "##icated": 3657,
      "##thy": 3658,
      "##iring": 3659,
      "##ires": 3660,
      "friends_comma_": 3661,
      "comfort": 3662,
      "caring": 3663,
      "kid_comma_": 3664,
      "friendship": 3665,
      "rele": 3666,
      "payment": 3667,
      "understand_comma_": 3668,
      "disco": 3669,
      "##agles": 3670,
      "flies": 3671,
      "yea_comma_": 3672,
      "graduation": 3673,
      "fully": 3674,
      "sky": 3675,
      "camp": 3676,
      "##onsider": 3677,
      "optimistic": 3678,
      "destroyed": 3679,
      "sweat": 3680,
      "Holy": 3681,
      "performance": 3682,
      "Hmm": 3683,
      "mall": 3684,
      "ori": 3685,
      "rout": 3686,
      "wel": 3687,
      "##ler": 3688,
      "##que": 3689,
      "##idge": 3690,
      "##icy": 3691,
      "plenty": 3692,
      "##artment": 3693,
      "hear_comma_": 3694,
      "Think": 3695,
      "spl": 3696,
      "scen": 3697,
      "develop": 3698,
      "bump": 3699,
      "direct": 3700,
      "parts": 3701,
      "money_comma_": 3702,
      "swear": 3703,
      "thoughtful": 3704,
      "amazed": 3705,
      "total": 3706,
      "forgive": 3707,
      "drinks": 3708,
      "frustrated": 3709,
      "draw": 3710,
      "cookies": 3711,
      "corner": 3712,
      "responsible": 3713,
      "stealing": 3714,
      "quality": 3715,
      "shape": 3716,
      "grandparents": 3717,
      "therapy": 3718,
      "alarm": 3719,
      "Guess": 3720,
      "11": 3721,
      "Mom": 3722,
      "South": 3723,
      "email": 3724,
      "hated": 3725,
      "lake": 3726,
      "nie": 3727,
      "punch": 3728,
      "wan": 3729,
      "##e_comma_": 3730,
      "##ask": 3731,
      "member": 3732,
      "neck": 3733,
      "nobody": 3734,
      "plus": 3735,
      "join": 3736,
      "press": 3737,
      "schedule": 3738,
      "activ": 3739,
      "eaten": 3740,
      "meaning": 3741,
      "belie": 3742,
      "hobby": 3743,
      "polit": 3744,
      "nearly": 3745,
      "riding": 3746,
      "ridiculous": 3747,
      "throwing": 3748,
      "##ibly": 3749,
      "holidays": 3750,
      "obvious": 3751,
      "rewarding": 3752,
      "assume": 3753,
      "constantly": 3754,
      "information": 3755,
      "punish": 3756,
      "machine": 3757,
      "miserable": 3758,
      ").": 3759,
      "Big": 3760,
      "Ph": 3761,
      "York": 3762,
      "cross": 3763,
      "rac": 3764,
      "race": 3765,
      "somed": 3766,
      "whe": 3767,
      "yep": 3768,
      "##cul": 3769,
      "##ama": 3770,
      "##lord": 3771,
      "be_comma_": 3772,
      "members": 3773,
      "however": 3774,
      "spiders": 3775,
      "enc": 3776,
      "##ushing": 3777,
      "nights": 3778,
      "understanding": 3779,
      "##ages": 3780,
      "fiance": 3781,
      "tests": 3782,
      "supervis": 3783,
      "complete": 3784,
      "advant": 3785,
      "packed": 3786,
      "seriously": 3787,
      "warm": 3788,
      "irritating": 3789,
      "blessed": 3790,
      "apologize": 3791,
      "allowed": 3792,
      "condition": 3793,
      "opin": 3794,
      ":/": 3795,
      "Car": 3796,
      "HA": 3797,
      "Wa": 3798,
      "soul": 3799,
      "##ees": 3800,
      "##rop": 3801,
      "##ury": 3802,
      "##bage": 3803,
      "##hol": 3804,
      "##ker": 3805,
      "tooth": 3806,
      "##otions": 3807,
      "isnt": 3808,
      "have_comma_": 3809,
      "repe": 3810,
      "##ung": 3811,
      "backyard": 3812,
      "divor": 3813,
      "granted": 3814,
      "##epend": 3815,
      "sometimes_comma_": 3816,
      "crap": 3817,
      "write": 3818,
      "grocer": 3819,
      "horrif": 3820,
      "boys": 3821,
      "desk": 3822,
      "incl": 3823,
      "supportive": 3824,
      "##cohol": 3825,
      "Anything": 3826,
      "please": 3827,
      "steps": 3828,
      "cooked": 3829,
      "cameras": 3830,
      "coasters": 3831,
      "Perhaps": 3832,
      "judge": 3833,
      "anniversary": 3834,
      "groceries": 3835,
      "App": 3836,
      "Omg": 3837,
      "bal": 3838,
      "ded": 3839,
      "fill": 3840,
      "rat": 3841,
      "##under": 3842,
      "##fish": 3843,
      "##go": 3844,
      "habit": 3845,
      "whether": 3846,
      "award": 3847,
      "lot_comma_": 3848,
      "shouldnt": 3849,
      "dog_comma_": 3850,
      "excuse": 3851,
      "unb": 3852,
      "drives": 3853,
      "##agn": 3854,
      "higher": 3855,
      "bond": 3856,
      "hitting": 3857,
      "Such": 3858,
      "lights": 3859,
      "concerned": 3860,
      "reminds": 3861,
      "landlord": 3862,
      "knocked": 3863,
      "##conom": 3864,
      "determ": 3865,
      "hurricane": 3866,
      "uncomfortable": 3867,
      "Hon": 3868,
      "Hallow": 3869,
      "bes": 3870,
      "hilar": 3871,
      "pig": 3872,
      "senior": 3873,
      "tire": 3874,
      "itself": 3875,
      "wasted": 3876,
      "##idents": 3877,
      "##ion_comma_": 3878,
      "alcohol": 3879,
      "shy": 3880,
      "shes": 3881,
      "spouse": 3882,
      "long_comma_": 3883,
      "dire": 3884,
      "uni": 3885,
      "ends": 3886,
      "Mexic": 3887,
      "skin": 3888,
      "videos": 3889,
      "mortified": 3890,
      "hilarious": 3891,
      "21": 3892,
      "80": 3893,
      "WO": 3894,
      "cell": 3895,
      "dear": 3896,
      "gate": 3897,
      "non": 3898,
      "none": 3899,
      "teet": 3900,
      "##cake": 3901,
      "third": 3902,
      "height": 3903,
      "brown": 3904,
      "does_comma_": 3905,
      "grass": 3906,
      "first_comma_": 3907,
      "familiar": 3908,
      "schools": 3909,
      "##erves": 3910,
      "soon_comma_": 3911,
      "craw": 3912,
      "remembered": 3913,
      "attract": 3914,
      "college_comma_": 3915,
      "##gging": 3916,
      "worst_comma_": 3917,
      "passing": 3918,
      "smile": 3919,
      "invite": 3920,
      "community": 3921,
      "considered": 3922,
      "practicing": 3923,
      "brave": 3924,
      "receive": 3925,
      "sales": 3926,
      "peaceful": 3927,
      "Ugh_comma_": 3928,
      "prize": 3929,
      "delivery": 3930,
      "wooded": 3931,
      "Okay": 3932,
      "snakes": 3933,
      "crowd": 3934,
      "natural": 3935,
      "origin": 3936,
      "supervisor": 3937,
      "!?": 3938,
      "Best": 3939,
      "Turn": 3940,
      "bite": 3941,
      "kitten": 3942,
      "mult": 3943,
      "nap": 3944,
      "picking": 3945,
      "size": 3946,
      "vie": 3947,
      "vol": 3948,
      "##ckey": 3949,
      "##my": 3950,
      "##bling": 3951,
      "stage": 3952,
      "##ops": 3953,
      "sus": 3954,
      "sugg": 3955,
      "club": 3956,
      "screen": 3957,
      "overcome": 3958,
      "uns": 3959,
      "rode": 3960,
      "##acking": 3961,
      "hurry": 3962,
      "Congratulation": 3963,
      "youngest": 3964,
      "perform": 3965,
      "raised": 3966,
      "teachers": 3967,
      "Awesome_comma_": 3968,
      "following": 3969,
      "employed": 3970,
      "##usement": 3971,
      "dishes": 3972,
      "garage": 3973,
      "##sych": 3974,
      "vehicle": 3975,
      "someday": 3976,
      "Halloween": 3977,
      "view": 3978,
      "suggest": 3979,
      "OM": 3980,
      "Ser": 3981,
      "double": 3982,
      "fur": 3983,
      "jack": 3984,
      "rely": 3985,
      "til": 3986,
      "##m_comma_": 3987,
      "##giving": 3988,
      "##Donald": 3989,
      "##IN": 3990,
      "toy": 3991,
      "##ows": 3992,
      "amusement": 3993,
      "heck": 3994,
      "load": 3995,
      "happend": 3996,
      "##iling": 3997,
      "spir": 3998,
      "ending": 3999,
      "done_comma_": 4000,
      "##ific": 4001,
      "teaching": 4002,
      "fancy": 4003,
      "commun": 4004,
      "bored": 4005,
      "fighting": 4006,
      "financially": 4007,
      "Should": 4008,
      "incredibly": 4009,
      "injured": 4010,
      "humili": 4011,
      "burned": 4012,
      "dragon": 4013,
      "character": 4014,
      "drugs": 4015,
      "risk": 4016,
      "negative": 4017,
      "education": 4018,
      "wanna": 4019,
      "OMG": 4020,
      "90": 4021,
      "Act": 4022,
      "Na": 4023,
      "Satur": 4024,
      "WH": 4025,
      "Wish": 4026,
      "damn": 4027,
      "ef": 4028,
      "furn": 4029,
      "hist": 4030,
      "lord": 4031,
      "nope": 4032,
      "ole": 4033,
      "ring": 4034,
      "sight": 4035,
      "##cean": 4036,
      "tow": 4037,
      "##orable": 4038,
      "##_comma_000": 4039,
      "##eng": 4040,
      "##itar": 4041,
      "station": 4042,
      "##ceed": 4043,
      "Whats": 4044,
      "##roat": 4045,
      "Didn": 4046,
      "hardly": 4047,
      "##iev": 4048,
      "bug": 4049,
      "trad": 4050,
      "overall": 4051,
      "sadly": 4052,
      "thoughts": 4053,
      "guessing": 4054,
      "dreams": 4055,
      "letting": 4056,
      "advent": 4057,
      "traum": 4058,
      "belong": 4059,
      "possib": 4060,
      "game_comma_": 4061,
      "tex": 4062,
      "##ival": 4063,
      "inconsider": 4064,
      "series": 4065,
      "daily": 4066,
      "smelled": 4067,
      "warning": 4068,
      "struggle": 4069,
      "garbage": 4070,
      "Seems": 4071,
      "professional": 4072,
      "encou": 4073,
      "effect": 4074,
      "inconsiderate": 4075,
      "AC": 4076,
      "Eagles": 4077,
      "jour": 4078,
      "mater": 4079,
      "##lt": 4080,
      "##door": 4081,
      "##fast": 4082,
      "##mand": 4083,
      "##lling": 4084,
      "onto": 4085,
      "suff": 4086,
      "atleast": 4087,
      "##alk": 4088,
      "although": 4089,
      "shad": 4090,
      "##unted": 4091,
      "fridge": 4092,
      "##igned": 4093,
      "##eans": 4094,
      "letter": 4095,
      "##aged": 4096,
      "nervous_comma_": 4097,
      "deserves": 4098,
      "babys": 4099,
      "raining": 4100,
      "stoked": 4101,
      "##coaster": 4102,
      "fairly": 4103,
      "distract": 4104,
      "damag": 4105,
      "considering": 4106,
      "##cessary": 4107,
      "oppos": 4108,
      "management": 4109,
      "cops": 4110,
      "smooth": 4111,
      "beginning": 4112,
      "bearded": 4113,
      "talented": 4114,
      "Enjoy": 4115,
      "advantage": 4116,
      "Jo": 4117,
      "Tom": 4118,
      "Tex": 4119,
      "esc": 4120,
      "fed": 4121,
      "fries": 4122,
      "oil": 4123,
      "ocean": 4124,
      "pen": 4125,
      "sau": 4126,
      "##oot": 4127,
      "##ring": 4128,
      "##gra": 4129,
      "##ences": 4130,
      "##cember": 4131,
      "Ohh": 4132,
      "excellent": 4133,
      "##ulf": 4134,
      "##roken": 4135,
      "plays": 4136,
      "##venient": 4137,
      "guitar": 4138,
      "However": 4139,
      "bugs": 4140,
      "evening": 4141,
      "then_comma_": 4142,
      "relative": 4143,
      "say_comma_": 4144,
      "cheer": 4145,
      "changes": 4146,
      "trained": 4147,
      "weekends": 4148,
      "flat": 4149,
      "flash": 4150,
      "marry": 4151,
      "attached": 4152,
      "students": 4153,
      "closet": 4154,
      "relieved": 4155,
      "currently": 4156,
      "finger": 4157,
      "admit": 4158,
      "motivated": 4159,
      "crashed": 4160,
      "Mario": 4161,
      "curious": 4162,
      "heartbroken": 4163,
      "overwhelming": 4164,
      "climb": 4165,
      "argument": 4166,
      "Better": 4167,
      "silly": 4168,
      "flowers": 4169,
      "McDonald": 4170,
      "Honest": 4171,
      "teeth": 4172,
      "Texas": 4173,
      "17": 4174,
      "Fe": 4175,
      "Had": 4176,
      "cab": 4177,
      "dan": 4178,
      "dry": 4179,
      "green": 4180,
      "hire": 4181,
      "mental": 4182,
      "us_comma_": 4183,
      "##ls": 4184,
      "##days": 4185,
      "##orm": 4186,
      "yout": 4187,
      "income": 4188,
      "##arn": 4189,
      "##arma": 4190,
      "soft": 4191,
      "stri": 4192,
      "upcoming": 4193,
      "happiness": 4194,
      "choo": 4195,
      "##ucks": 4196,
      "aftern": 4197,
      "adorable": 4198,
      "chances": 4199,
      "grossed": 4200,
      "reasons": 4201,
      "checking": 4202,
      "hockey": 4203,
      "milk": 4204,
      "brain": 4205,
      "priv": 4206,
      "Yikes_comma_": 4207,
      "rollercoaster": 4208,
      "Two": 4209,
      "welcome": 4210,
      "babysit": 4211,
      "Cal": 4212,
      "Fall": 4213,
      "bi": 4214,
      "host": 4215,
      "lab": 4216,
      "pounds": 4217,
      "rot": 4218,
      "south": 4219,
      "##cl": 4220,
      "##ts": 4221,
      "##bu": 4222,
      "##kin": 4223,
      "##ER": 4224,
      "##atives": 4225,
      "haunted": 4226,
      "##lder": 4227,
      "##lect": 4228,
      "go_comma_": 4229,
      "##urope": 4230,
      "willing": 4231,
      "this_comma_": 4232,
      "While": 4233,
      "built": 4234,
      "oldest": 4235,
      "coll": 4236,
      "moms": 4237,
      "person_comma_": 4238,
      "vacu": 4239,
      "Hopefully_comma_": 4240,
      "breakfast": 4241,
      "stores": 4242,
      "Whoa": 4243,
      "Inter": 4244,
      "independ": 4245,
      "rides": 4246,
      "Although": 4247,
      "celebrat": 4248,
      "homes": 4249,
      "approved": 4250,
      "speeding": 4251,
      "recipe": 4252,
      "##check": 4253,
      "Saturday": 4254,
      "##ength": 4255,
      "opposite": 4256,
      "Fun": 4257,
      "Went": 4258,
      "dig": 4259,
      "dance": 4260,
      "ditch": 4261,
      "ket": 4262,
      "rich": 4263,
      "soo": 4264,
      "tall": 4265,
      "vo": 4266,
      "yo": 4267,
      "becoming": 4268,
      "##sters": 4269,
      "##etfl": 4270,
      "##ution": 4271,
      "form": 4272,
      "on_comma_": 4273,
      "##celled": 4274,
      "##inder": 4275,
      "exist": 4276,
      "precious": 4277,
      "happens_comma_": 4278,
      "Hell": 4279,
      "conv": 4280,
      "held": 4281,
      "diagn": 4282,
      "waited": 4283,
      "seat": 4284,
      "courage": 4285,
      "complex": 4286,
      "role": 4287,
      "##mmy": 4288,
      "phones": 4289,
      "sooner": 4290,
      "hurting": 4291,
      "preparing": 4292,
      "desp": 4293,
      "either_comma_": 4294,
      "Also": 4295,
      "avail": 4296,
      "burger": 4297,
      "thrilled": 4298,
      "property": 4299,
      "arrived": 4300,
      "locked": 4301,
      "purchase": 4302,
      "provide": 4303,
      "unfair": 4304,
      "pressure": 4305,
      "divorce": 4306,
      "Turns": 4307,
      "Actually": 4308,
      "afternoon": 4309,
      "##etflix": 4310,
      "Am": 4311,
      "Hard": 4312,
      "IS": 4313,
      "Poor": 4314,
      "Tot": 4315,
      "econom": 4316,
      "geez": 4317,
      "ju": 4318,
      "mir": 4319,
      "nature": 4320,
      "row": 4321,
      "ripped": 4322,
      "##ole": 4323,
      "##tom": 4324,
      "##ients": 4325,
      "##kn": 4326,
      "##ony": 4327,
      "##iture": 4328,
      "in_comma_": 4329,
      "steak": 4330,
      "butter": 4331,
      "cancelled": 4332,
      "workout": 4333,
      "plate": 4334,
      "guard": 4335,
      "truth": 4336,
      "bread": 4337,
      "happy_comma_": 4338,
      "player": 4339,
      "paycheck": 4340,
      "personally": 4341,
      "changing": 4342,
      "foods": 4343,
      "crack": 4344,
      "sucked": 4345,
      "league": 4346,
      "embarassed": 4347,
      "hole": 4348,
      "counting": 4349,
      "relaxed": 4350,
      "interviews": 4351,
      "##ians": 4352,
      "facebook": 4353,
      "replaced": 4354,
      "budget": 4355,
      "basket": 4356,
      "spoken": 4357,
      "blessing": 4358,
      "potato": 4359,
      "gosh_comma_": 4360,
      "woods": 4361,
      "illness": 4362,
      "film": 4363,
      "physical": 4364,
      "experienced": 4365,
      "fortunate": 4366,
      "direction": 4367,
      "multip": 4368,
      "youtube": 4369,
      "available": 4370,
      "Fam": 4371,
      "Face": 4372,
      "Re": 4373,
      "den": 4374,
      "hous": 4375,
      "jail": 4376,
      "##lo": 4377,
      "##rit": 4378,
      "##ray": 4379,
      "##w_comma_": 4380,
      "thunder": 4381,
      "##icate": 4382,
      "##entally": 4383,
      "abuse": 4384,
      "##irst": 4385,
      "mod": 4386,
      "##ousand": 4387,
      "clue": 4388,
      "cared": 4389,
      "sale": 4390,
      "##osing": 4391,
      "ourselves": 4392,
      "chem": 4393,
      "favorites": 4394,
      "poison": 4395,
      "horse": 4396,
      "dealing": 4397,
      "classic": 4398,
      "##gged": 4399,
      "promise": 4400,
      "fund": 4401,
      "visited": 4402,
      "paint": 4403,
      "president": 4404,
      "incre": 4405,
      "snow": 4406,
      "!!!!": 4407,
      "hotel": 4408,
      "emotions": 4409,
      "drama": 4410,
      "jumping": 4411,
      "goodness_comma_": 4412,
      "nostalgia": 4413,
      "calcul": 4414,
      "Nope_comma_": 4415,
      "keys": 4416,
      "qualified": 4417,
      "##ribly": 4418,
      "boost": 4419,
      "pleasant": 4420,
      "English": 4421,
      "tornado": 4422,
      "version": 4423,
      "tournament": 4424,
      "niece": 4425,
      "obviously": 4426,
      "opinion": 4427,
      "35": 4428,
      "Ar": 4429,
      "Com": 4430,
      "Ple": 4431,
      "Yay": 4432,
      "ath": 4433,
      "fence": 4434,
      "faster": 4435,
      "kit": 4436,
      "nuts": 4437,
      "por": 4438,
      "ren": 4439,
      "rad": 4440,
      "sep": 4441,
      "und": 4442,
      "##ners": 4443,
      "##sle": 4444,
      "##here": 4445,
      "##wa": 4446,
      "##OU": 4447,
      "thousand": 4448,
      "##ino": 4449,
      "##ctions": 4450,
      "allerg": 4451,
      "##ilies": 4452,
      "joke": 4453,
      "buff": 4454,
      "envy": 4455,
      "arent": 4456,
      "lol_comma_": 4457,
      "blind": 4458,
      "resch": 4459,
      "trail": 4460,
      "trips": 4461,
      "girlfriend_comma_": 4462,
      "crazy_comma_": 4463,
      "honor": 4464,
      "appreh": 4465,
      "types": 4466,
      "relationships": 4467,
      "opening": 4468,
      "sorts": 4469,
      "tasted": 4470,
      "response": 4471,
      "slowly": 4472,
      "selling": 4473,
      "depressed": 4474,
      "properly": 4475,
      "heavy": 4476,
      "siblings": 4477,
      "heights": 4478,
      "Serious": 4479,
      "furniture": 4480,
      "Europe": 4481,
      "Har": 4482,
      "Loo": 4483,
      "Since": 4484,
      "gest": 4485,
      "##overs": 4486,
      "##nes": 4487,
      "##ss_comma_": 4488,
      "##boy": 4489,
      "##gle": 4490,
      "##YY": 4491,
      "##espon": 4492,
      "##stand": 4493,
      "inn": 4494,
      "neither": 4495,
      "abused": 4496,
      "happier": 4497,
      "##une": 4498,
      "These": 4499,
      "veget": 4500,
      "confu": 4501,
      "old_comma_": 4502,
      "##ies_comma_": 4503,
      "Dogs": 4504,
      "action": 4505,
      "careless": 4506,
      "crime": 4507,
      "writing": 4508,
      "expectations": 4509,
      "farm": 4510,
      "accidents": 4511,
      "##ification": 4512,
      "##box": 4513,
      "funny_comma_": 4514,
      "matters": 4515,
      "1000": 4516,
      "???": 4517,
      "Cool_comma_": 4518,
      "employee": 4519,
      "accomplished": 4520,
      "delivered": 4521,
      "randomly": 4522,
      "treas": 4523,
      "traveling": 4524,
      "shift": 4525,
      "nightmare": 4526,
      "snacks": 4527,
      "center": 4528,
      "includ": 4529,
      "balance": 4530,
      "spirit": 4531,
      "vacuum": 4532,
      "basketball": 4533,
      "multiple": 4534,
      ";)": 4535,
      "Amaz": 4536,
      "Eww": 4537,
      "Grand": 4538,
      "Veg": 4539,
      "bun": 4540,
      "lane": 4541,
      "omg": 4542,
      "sle": 4543,
      "##cent": 4544,
      "##night": 4545,
      "##ration": 4546,
      "##ply": 4547,
      "##iable": 4548,
      "##ipping": 4549,
      "##oups": 4550,
      "##att": 4551,
      "todd": 4552,
      "##ett": 4553,
      "soci": 4554,
      "areas": 4555,
      "reject": 4556,
      "upon": 4557,
      "plant": 4558,
      "nowhere": 4559,
      "spell": 4560,
      "hardest": 4561,
      "fav": 4562,
      "something_comma_": 4563,
      "best_comma_": 4564,
      "intense": 4565,
      "parties": 4566,
      "usual": 4567,
      "robbed": 4568,
      "acted": 4569,
      "actions": 4570,
      "recon": 4571,
      "understood": 4572,
      "calls": 4573,
      "bitter": 4574,
      "giant": 4575,
      "poss": 4576,
      "strength": 4577,
      "leaves": 4578,
      "exciting_comma_": 4579,
      "trustwor": 4580,
      "##iforn": 4581,
      "Before": 4582,
      "honest_comma_": 4583,
      "nearby": 4584,
      "singing": 4585,
      "department": 4586,
      "simply": 4587,
      "numbers": 4588,
      "cousins": 4589,
      "questions": 4590,
      "depressing": 4591,
      "adopted": 4592,
      "applying": 4593,
      "suddenly": 4594,
      "America": 4595,
      "Apparently": 4596,
      "Interest": 4597,
      "Vegas": 4598,
      "##ifornia": 4599,
      "Kor": 4600,
      "dying": 4601,
      "fol": 4602,
      "peed": 4603,
      "round": 4604,
      "sink": 4605,
      "##aper": 4606,
      "##nment": 4607,
      "##vid": 4608,
      "##ev": 4609,
      "##ris": 4610,
      "##iol": 4611,
      "##-)": 4612,
      "##ina": 4613,
      "##mar": 4614,
      "##mart": 4615,
      "hall": 4616,
      "##ances": 4617,
      "##eliness": 4618,
      "stat": 4619,
      "##ades": 4620,
      "like_comma_": 4621,
      "altern": 4622,
      "shake": 4623,
      "noises": 4624,
      "fru": 4625,
      "friendly": 4626,
      "##arten": 4627,
      "daycare": 4628,
      "clown": 4629,
      "parked": 4630,
      "impro": 4631,
      "disl": 4632,
      "crit": 4633,
      "yesterday_comma_": 4634,
      "vacations": 4635,
      "##reaking": 4636,
      "perhaps": 4637,
      "companies": 4638,
      "##ify": 4639,
      "anymore_comma_": 4640,
      "shocking": 4641,
      "tons": 4642,
      "Stay": 4643,
      "presents": 4644,
      "bedroom": 4645,
      "standing": 4646,
      "irrespon": 4647,
      "followed": 4648,
      "praying": 4649,
      "cashier": 4650,
      "mainly": 4651,
      "apologized": 4652,
      "physically": 4653,
      "approach": 4654,
      "Ouch_comma_": 4655,
      "screamed": 4656,
      "albums": 4657,
      "Smash": 4658,
      "journey": 4659,
      "damaged": 4660,
      "##known": 4661,
      "athl": 4662,
      "500": 4663,
      "High": 4664,
      "Let": 4665,
      "More": 4666,
      "Oo": 4667,
      "Po": 4668,
      "bust": 4669,
      "batter": 4670,
      "based": 4671,
      "blew": 4672,
      "cope": 4673,
      "fra": 4674,
      "ir": 4675,
      "mal": 4676,
      "named": 4677,
      "nah": 4678,
      "soup": 4679,
      "tea": 4680,
      "##nel": 4681,
      "##sion": 4682,
      "##food": 4683,
      "##hear": 4684,
      "##ores": 4685,
      "##ana": 4686,
      "ability": 4687,
      "abilities": 4688,
      "outdoor": 4689,
      "##urb": 4690,
      "exact": 4691,
      "friday": 4692,
      "happen_comma_": 4693,
      "agreed": 4694,
      "aggra": 4695,
      "kidding": 4696,
      "otherwise": 4697,
      "down_comma_": 4698,
      "drank": 4699,
      "same_comma_": 4700,
      "flu": 4701,
      "remembering": 4702,
      "pupp": 4703,
      "wrote": 4704,
      "focu": 4705,
      "sweet_comma_": 4706,
      "boy_comma_": 4707,
      "laid": 4708,
      "hopes": 4709,
      "Star": 4710,
      "##ode": 4711,
      "LOVE": 4712,
      "symp": 4713,
      "cruel": 4714,
      "motor": 4715,
      "events": 4716,
      "spoke": 4717,
      "Exactly_comma_": 4718,
      "starved": 4719,
      "transfer": 4720,
      "adults": 4721,
      "2000": 4722,
      "kicked": 4723,
      "battle": 4724,
      "Plus": 4725,
      "personality": 4726,
      "experiences": 4727,
      "screaming": 4728,
      "electric": 4729,
      "introdu": 4730,
      "eggs": 4731,
      "history": 4732,
      "innoc": 4733,
      "confused": 4734,
      "trustworthy": 4735,
      "aggrav": 4736,
      "2nd": 4737,
      "60": 4738,
      "By": 4739,
      "fro": 4740,
      "fried": 4741,
      "fulf": 4742,
      "goo": 4743,
      "hired": 4744,
      "imm": 4745,
      "lower": 4746,
      "ol": 4747,
      "pock": 4748,
      "pian": 4749,
      "rab": 4750,
      "##cri": 4751,
      "##ale": 4752,
      "##rim": 4753,
      "##us_comma_": 4754,
      "##ndred": 4755,
      "##edul": 4756,
      "##uty": 4757,
      "##vernment": 4758,
      "spare": 4759,
      "ages": 4760,
      "people_comma_": 4761,
      "pretend": 4762,
      "groups": 4763,
      "unknown": 4764,
      "underw": 4765,
      "anything_comma_": 4766,
      "recent": 4767,
      "apparently": 4768,
      "actually_comma_": 4769,
      "crappy": 4770,
      "surprising": 4771,
      "hundred": 4772,
      "recently_comma_": 4773,
      "stuff_comma_": 4774,
      "earn": 4775,
      "handling": 4776,
      "painting": 4777,
      "team_comma_": 4778,
      "killing": 4779,
      "medic": 4780,
      "graduating": 4781,
      "perfectly": 4782,
      "practiced": 4783,
      "generous": 4784,
      "employees": 4785,
      "engaged": 4786,
      "tricks": 4787,
      "Unfortunately_comma_": 4788,
      "purchased": 4789,
      "Getting": 4790,
      "achievement": 4791,
      "2018": 4792,
      "engineering": 4793,
      "safety": 4794,
      "reunion": 4795,
      "WOW": 4796,
      "choose": 4797,
      "houses": 4798,
      "Please": 4799,
      "porch": 4800,
      "##waii": 4801,
      "gesture": 4802,
      "Ag": 4803,
      "Both": 4804,
      "Color": 4805,
      "Dr": 4806,
      "Either": 4807,
      "Lots": 4808,
      "Love": 4809,
      "bout": 4810,
      "bomb": 4811,
      "elder": 4812,
      "flew": 4813,
      "hat": 4814,
      "names": 4815,
      "sil": 4816,
      "uh": 4817,
      "wet": 4818,
      "##eed_comma_": 4819,
      "##ship": 4820,
      "##ially": 4821,
      "##me": 4822,
      "##OO": 4823,
      "##oring": 4824,
      "##oting": 4825,
      "infect": 4826,
      "##ley": 4827,
      "##chan": 4828,
      "hey": 4829,
      "##ctic": 4830,
      "##antic": 4831,
      "thinks": 4832,
      "previous": 4833,
      "science": 4834,
      "officer": 4835,
      "homework": 4836,
      "blank": 4837,
      "##ags": 4838,
      "##pler": 4839,
      "hahah": 4840,
      "##born": 4841,
      "marath": 4842,
      "earned": 4843,
      "advance": 4844,
      ".....": 4845,
      "salad": 4846,
      "boxes": 4847,
      "occur": 4848,
      "airport": 4849,
      "continues": 4850,
      "option": 4851,
      "Yup_comma_": 4852,
      "birds": 4853,
      "bowl": 4854,
      "counsel": 4855,
      "retirement": 4856,
      "tradition": 4857,
      "ditched": 4858,
      "reschedule": 4859,
      "Seriously": 4860,
      "Pokemon": 4861,
      "\"!": 4862,
      "800": 4863,
      "May": 4864,
      "Us": 4865,
      "Work": 4866,
      "dise": 4867,
      "darn": 4868,
      "mower": 4869,
      "rom": 4870,
      "ram": 4871,
      "wise": 4872,
      "##ox": 4873,
      "##eable": 4874,
      "##on_comma_": 4875,
      "item": 4876,
      "##itting": 4877,
      "suc": 4878,
      "aband": 4879,
      "sharing": 4880,
      "##unte": 4881,
      "freaking": 4882,
      "chill": 4883,
      "##ership": 4884,
      "legs": 4885,
      "hassle": 4886,
      "coast": 4887,
      "scares": 4888,
      "luck_comma_": 4889,
      "##aches": 4890,
      "talks": 4891,
      "complicated": 4892,
      "##sia": 4893,
      "sounded": 4894,
      "Been": 4895,
      "example": 4896,
      "##ivid": 4897,
      "laund": 4898,
      "charity": 4899,
      "tasty": 4900,
      "deliver": 4901,
      "roommates": 4902,
      "Absolutely_comma_": 4903,
      "laying": 4904,
      "arrive": 4905,
      "temper": 4906,
      "depends": 4907,
      "mixed": 4908,
      "nurse": 4909,
      "American": 4910,
      "epis": 4911,
      "original": 4912,
      "volunte": 4913,
      "adventure": 4914,
      "Tomorrow": 4915,
      "apprehensive": 4916,
      "society": 4917,
      "innocent": 4918,
      "Colorado": 4919,
      "abandon": 4920,
      "Call": 4921,
      "Dad": 4922,
      "Give": 4923,
      "Other": 4924,
      "Sa": 4925,
      "ease": 4926,
      "mow": 4927,
      "wit": 4928,
      "zoo": 4929,
      "##ral": 4930,
      "##ummy": 4931,
      "##iff": 4932,
      "##gy": 4933,
      "##EA": 4934,
      "##?!": 4935,
      "toe": 4936,
      "##comes": 4937,
      "youre": 4938,
      "##ening": 4939,
      "isol": 4940,
      "infl": 4941,
      "##eliev": 4942,
      "donate": 4943,
      "aware": 4944,
      "everybody": 4945,
      "everytime": 4946,
      "scam": 4947,
      "prank": 4948,
      "##ossible": 4949,
      "##cipl": 4950,
      "waking": 4951,
      "waitress": 4952,
      "glut": 4953,
      "tail": 4954,
      "active": 4955,
      "##ability": 4956,
      "blow": 4957,
      "showing": 4958,
      "fla": 4959,
      "stray": 4960,
      "collect": 4961,
      "young_comma_": 4962,
      "embarassing": 4963,
      "gambling": 4964,
      "typ": 4965,
      "delay": 4966,
      "town_comma_": 4967,
      "charged": 4968,
      "##ergarten": 4969,
      "treated": 4970,
      "hunting": 4971,
      "considerate": 4972,
      "purse": 4973,
      "cheaper": 4974,
      "spring": 4975,
      "unfortunate_comma_": 4976,
      "staring": 4977,
      "maintain": 4978,
      "valu": 4979,
      "shaking": 4980,
      "physics": 4981,
      "assuming": 4982,
      "crushed": 4983,
      "cheesecake": 4984,
      "technology": 4985,
      "shooting": 4986,
      "ignore": 4987,
      "productive": 4988,
      "album": 4989,
      "responsibility": 4990,
      "circus": 4991,
      "activities": 4992,
      "unique": 4993,
      "humiliated": 4994,
      "despite": 4995,
      "Family": 4996,
      "Facebook": 4997,
      "laundry": 4998,
      "First": 4999,
      "Gr": 5000,
      "Losing": 5001,
      "Red": 5002,
      "ace": 5003,
      "dirt": 5004,
      "eager": 5005,
      "file": 5006,
      "gig": 5007,
      "kiss": 5008,
      "lend": 5009,
      "lines": 5010,
      "nintendo": 5011,
      "pound": 5012,
      "rul": 5013,
      "task": 5014,
      "##oved": 5015,
      "##but": 5016,
      "##hold": 5017,
      "##ero": 5018,
      "##inge": 5019,
      "##orge": 5020,
      "##anes": 5021,
      "##ancy": 5022,
      "##itis": 5023,
      "##eling": 5024,
      "fore": 5025,
      "##ustry": 5026,
      "lies": 5027,
      "livid": 5028,
      "##verage": 5029,
      "reaction": 5030,
      "shark": 5031,
      "shots": 5032,
      "##ested": 5033,
      "anybody": 5034,
      "greatest": 5035,
      "bet_comma_": 5036,
      "chip": 5037,
      "cla": 5038,
      "trou": 5039,
      "##ished": 5040,
      "families": 5041,
      "excite": 5042,
      "compared": 5043,
      "term": 5044,
      "reliable": 5045,
      "##ildren": 5046,
      "girl_comma_": 5047,
      "perspect": 5048,
      "disney": 5049,
      "rescu": 5050,
      "tragic": 5051,
      "excited_comma_": 5052,
      "Good_comma_": 5053,
      "owned": 5054,
      "strang": 5055,
      "slam": 5056,
      "slight": 5057,
      "handy": 5058,
      "storms": 5059,
      "embarrass": 5060,
      "worrying": 5061,
      "##apan": 5062,
      "loneliness": 5063,
      "repay": 5064,
      "industry": 5065,
      "settle": 5066,
      "committed": 5067,
      "hung": 5068,
      "Lucky": 5069,
      "ITs": 5070,
      "##sweet": 5071,
      "##phone": 5072,
      "grabbed": 5073,
      "songs": 5074,
      "colors": 5075,
      "motivation": 5076,
      "teenager": 5077,
      "panic": 5078,
      "reviews": 5079,
      "tears": 5080,
      "breath": 5081,
      "hiking": 5082,
      "frequ": 5083,
      "benefits": 5084,
      "routine": 5085,
      "unbeliev": 5086,
      "##ING": 5087,
      "material": 5088,
      "esca": 5089,
      "voice": 5090,
      "Totally": 5091,
      "separ": 5092,
      "Amazing": 5093,
      "irresponsible": 5094,
      "pocket": 5095,
      "underwear": 5096,
      "succeed": 5097,
      "300": 5098,
      "Bra": 5099,
      "Japan": 5100,
      "Kn": 5101,
      "Tinder": 5102,
      "cage": 5103,
      "cord": 5104,
      "est": 5105,
      "ess": 5106,
      "fake": 5107,
      "freed": 5108,
      "gut": 5109,
      "hint": 5110,
      "oven": 5111,
      "pill": 5112,
      "port": 5113,
      "psych": 5114,
      "sooo": 5115,
      "##off": 5116,
      "##ak": 5117,
      "##az": 5118,
      "##nis": 5119,
      "##real": 5120,
      "##ials": 5121,
      "##HA": 5122,
      "##MA": 5123,
      "##just": 5124,
      "##inis": 5125,
      "##orms": 5126,
      "##ened": 5127,
      "ham": 5128,
      "inse": 5129,
      "for_comma_": 5130,
      "stays": 5131,
      "mechan": 5132,
      "##ential": 5133,
      "suit": 5134,
      "sunday": 5135,
      "##ears": 5136,
      "loans": 5137,
      "anytime": 5138,
      "ord": 5139,
      "clot": 5140,
      "screw": 5141,
      "vegan": 5142,
      "##alled": 5143,
      "connect": 5144,
      "kidd": 5145,
      "Haven": 5146,
      "Having": 5147,
      "##mentary": 5148,
      "impact": 5149,
      "month_comma_": 5150,
      "discipl": 5151,
      "tells": 5152,
      "while_comma_": 5153,
      "child_comma_": 5154,
      "place_comma_": 5155,
      "sons": 5156,
      "wondering": 5157,
      "##angu": 5158,
      "attic": 5159,
      "movie_comma_": 5160,
      "handful": 5161,
      "countries": 5162,
      "driveway": 5163,
      "appreciative": 5164,
      "minor": 5165,
      "Now_comma_": 5166,
      "choices": 5167,
      "simpler": 5168,
      "alright_comma_": 5169,
      "Lol_comma_": 5170,
      "landed": 5171,
      "bothering": 5172,
      "yelling": 5173,
      "options": 5174,
      "Mostly": 5175,
      "answers": 5176,
      "litter": 5177,
      "transport": 5178,
      "Right_comma_": 5179,
      "Yesterday_comma_": 5180,
      "pumpkin": 5181,
      "reached": 5182,
      "##VER": 5183,
      "characters": 5184,
      "bottle": 5185,
      "frightening": 5186,
      "Finally": 5187,
      "limit": 5188,
      "attractive": 5189,
      "Congratulations_comma_": 5190,
      "texting": 5191,
      "economy": 5192,
      "dislike": 5193,
      "marathon": 5194,
      "witness": 5195,
      "rescued": 5196,
      "freedom": 5197,
      "Ad": 5198,
      "Little": 5199,
      "Look": 5200,
      "Par": 5201,
      "Yum": 5202,
      "average": 5203,
      "cap": 5204,
      "er": 5205,
      "equ": 5206,
      "lack": 5207,
      "mut": 5208,
      "mass": 5209,
      "mentally": 5210,
      "nicer": 5211,
      "rage": 5212,
      "wine": 5213,
      "yall": 5214,
      "##vill": 5215,
      "##vir": 5216,
      "##eve": 5217,
      "##esl": 5218,
      "force": 5219,
      "sod": 5220,
      "government": 5221,
      "##irth": 5222,
      "exha": 5223,
      "Their": 5224,
      "chain": 5225,
      "chair": 5226,
      "comb": 5227,
      "client": 5228,
      "died_comma_": 5229,
      "schedul": 5230,
      "quar": 5231,
      "compass": 5232,
      "related": 5233,
      "##acle": 5234,
      "blown": 5235,
      "Isn": 5236,
      "resolved": 5237,
      "ideas": 5238,
      "gross_comma_": 5239,
      "annoying_comma_": 5240,
      "retail": 5241,
      "horrible_comma_": 5242,
      "##icted": 5243,
      "forgotten": 5244,
      "certification": 5245,
      "shoe": 5246,
      "corn": 5247,
      "windows": 5248,
      "savings": 5249,
      "prior": 5250,
      "patience": 5251,
      "causing": 5252,
      "popular": 5253,
      "rarely": 5254,
      "Seeing": 5255,
      "entered": 5256,
      "entertain": 5257,
      "heartbreaking": 5258,
      "discount": 5259,
      "vomited": 5260,
      "unlock": 5261,
      "survived": 5262,
      "seafood": 5263,
      "Wonder": 5264,
      "discovered": 5265,
      "Waiting": 5266,
      "pigs": 5267,
      "encourage": 5268,
      "##ltim": 5269,
      "sauce": 5270,
      "Looking": 5271,
      "Interesting": 5272,
      "focused": 5273,
      "elderly": 5274,
      "exhaust": 5275,
      "Au": 5276,
      "Cra": 5277,
      "DO": 5278,
      "Dont": 5279,
      "Leb": 5280,
      "Made": 5281,
      "Netflix": 5282,
      "Old": 5283,
      "Part": 5284,
      "Rock": 5285,
      "Rem": 5286,
      "Taking": 5287,
      "YES": 5288,
      "fool": 5289,
      "langu": 5290,
      "nic": 5291,
      "patch": 5292,
      "pics": 5293,
      "rate": 5294,
      "sour": 5295,
      "signed": 5296,
      "tight": 5297,
      "viol": 5298,
      "##oom": 5299,
      "##pers": 5300,
      "##uma": 5301,
      "##well": 5302,
      "##HH": 5303,
      "##RE": 5304,
      "##lla": 5305,
      "##ass_comma_": 5306,
      "##enc": 5307,
      "##otic": 5308,
      "inch": 5309,
      "webs": 5310,
      "refer": 5311,
      "upgr": 5312,
      "##unior": 5313,
      "##estyle": 5314,
      "exch": 5315,
      "chose": 5316,
      "chased": 5317,
      "chasing": 5318,
      "##iled": 5319,
      "harm": 5320,
      "clu": 5321,
      "scored": 5322,
      "defin": 5323,
      "envir": 5324,
      "arm": 5325,
      "cock": 5326,
      "unc": 5327,
      "unable": 5328,
      "Why_comma_": 5329,
      "thru": 5330,
      "relatives": 5331,
      "appet": 5332,
      "reminis": 5333,
      "discus": 5334,
      "adjust": 5335,
      "bit_comma_": 5336,
      "Awe": 5337,
      "reality": 5338,
      "tries": 5339,
      "decor": 5340,
      "haha_comma_": 5341,
      "restroom": 5342,
      "cutting": 5343,
      "tomato": 5344,
      "slipped": 5345,
      "stressing": 5346,
      "morning_comma_": 5347,
      "breaks": 5348,
      "bosses": 5349,
      "##shi": 5350,
      "worry_comma_": 5351,
      "expenses": 5352,
      "##uesday": 5353,
      "Almost": 5354,
      "listened": 5355,
      "closing": 5356,
      "shorts": 5357,
      "application": 5358,
      "Luckily_comma_": 5359,
      "From": 5360,
      "France": 5361,
      "meals": 5362,
      "sending": 5363,
      "replacement": 5364,
      "rewarded": 5365,
      "recovered": 5366,
      "lifestyle": 5367,
      "heaven": 5368,
      "drug": 5369,
      "anticipating": 5370,
      "taxes": 5371,
      "Hahaha_comma_": 5372,
      "passionate": 5373,
      "wheel": 5374,
      "dedication": 5375,
      "Okay_comma_": 5376,
      "Nah_comma_": 5377,
      "model": 5378,
      "reconnect": 5379,
      "bittersweet": 5380,
      "Usually": 5381,
      "valuable": 5382,
      "Lebron": 5383,
      "Ba": 5384,
      "Boy": 5385,
      "Bell": 5386,
      "Croat": 5387,
      "Damn": 5388,
      "Might": 5389,
      "Mac": 5390,
      "Yuck": 5391,
      "cable": 5392,
      "gre": 5393,
      "junk": 5394,
      "las": 5395,
      "lbs": 5396,
      "mic": 5397,
      "mile": 5398,
      "na": 5399,
      "net": 5400,
      "serve": 5401,
      "wea": 5402,
      "weak": 5403,
      "wishing": 5404,
      "##cr": 5405,
      "##lace": 5406,
      "##ns": 5407,
      "##ued": 5408,
      "##ught": 5409,
      "##ium": 5410,
      "##AN": 5411,
      "##inese": 5412,
      "##onment": 5413,
      "##stairs": 5414,
      "##isions": 5415,
      "stain": 5416,
      "necessary": 5417,
      "with_comma_": 5418,
      "worries": 5419,
      "hectic": 5420,
      "shared": 5421,
      "awe": 5422,
      "champ": 5423,
      "prices": 5424,
      "more_comma_": 5425,
      "arr": 5426,
      "mag": 5427,
      "dogs_comma_": 5428,
      "##hab": 5429,
      "Hawaii": 5430,
      "actual": 5431,
      "puts": 5432,
      "upset_comma_": 5433,
      "decisions": 5434,
      "pokemon": 5435,
      "yourself_comma_": 5436,
      "once_comma_": 5437,
      "Thanksgiving": 5438,
      "trip_comma_": 5439,
      "party_comma_": 5440,
      "bros": 5441,
      "imagine_comma_": 5442,
      "##quit": 5443,
      "games_comma_": 5444,
      "sneak": 5445,
      "##eptember": 5446,
      "regist": 5447,
      "Summer": 5448,
      "cookie": 5449,
      "standard": 5450,
      "laws": 5451,
      "December": 5452,
      "satur": 5453,
      "generation": 5454,
      "pregnancy": 5455,
      "##phones": 5456,
      "contacted": 5457,
      "secrets": 5458,
      "attacked": 5459,
      "freshman": 5460,
      "devastating": 5461,
      "borrowed": 5462,
      "detail": 5463,
      "injury": 5464,
      "customers": 5465,
      "nursing": 5466,
      "hesit": 5467,
      "frightened": 5468,
      "recognize": 5469,
      "necklace": 5470,
      "##ropri": 5471,
      "determined": 5472,
      "Mexican": 5473,
      "##ificant": 5474,
      "traumatic": 5475,
      "McDonalds": 5476,
      "private": 5477,
      "California": 5478,
      "independent": 5479,
      "diagnosed": 5480,
      "slept": 5481,
      "influ": 5482,
      "##ville": 5483,
      "24": 5484,
      "22": 5485,
      "70": 5486,
      ":-)": 5487,
      "Birth": 5488,
      "ER": 5489,
      "Feb": 5490,
      "Ill": 5491,
      "Nor": 5492,
      "Tra": 5493,
      "bound": 5494,
      "fest": 5495,
      "gather": 5496,
      "pant": 5497,
      "var": 5498,
      "vib": 5499,
      "##ober": 5500,
      "##rd": 5501,
      "##school": 5502,
      "##ug": 5503,
      "##und": 5504,
      "##iot": 5505,
      "##dog": 5506,
      "##min": 5507,
      "##RI": 5508,
      "##PA": 5509,
      "##inct": 5510,
      "##male": 5511,
      "##ma_comma_": 5512,
      "ing": 5513,
      "init": 5514,
      "socks": 5515,
      "##verse": 5516,
      "##illing": 5517,
      "can_comma_": 5518,
      "female": 5519,
      "hey_comma_": 5520,
      "##tered": 5521,
      "goodby": 5522,
      "Ohhh": 5523,
      "knee": 5524,
      "feel_comma_": 5525,
      "##ctober": 5526,
      "##ests": 5527,
      "bags": 5528,
      "betray": 5529,
      "mos": 5530,
      "Heck": 5531,
      "aggress": 5532,
      "scra": 5533,
      "joining": 5534,
      "demand": 5535,
      "printer": 5536,
      "over_comma_": 5537,
      "##igious": 5538,
      "argue": 5539,
      "pretended": 5540,
      "##using": 5541,
      "finds": 5542,
      "unp": 5543,
      "afterward": 5544,
      "monsters": 5545,
      "apple": 5546,
      "impossible": 5547,
      "lets": 5548,
      "florida": 5549,
      "pup": 5550,
      "wife_comma_": 5551,
      "win_comma_": 5552,
      "alone_comma_": 5553,
      "highway": 5554,
      "classm": 5555,
      "##onda": 5556,
      "access": 5557,
      "message": 5558,
      "Canad": 5559,
      "Start": 5560,
      "ticked": 5561,
      "incon": 5562,
      "commit": 5563,
      "......": 5564,
      "packing": 5565,
      "##ledge": 5566,
      "finances": 5567,
      "addition": 5568,
      "complained": 5569,
      "airpl": 5570,
      "particip": 5571,
      "jerks": 5572,
      "##ission": 5573,
      "refused": 5574,
      "canceled": 5575,
      "paperwork": 5576,
      "vomit": 5577,
      "survive": 5578,
      "edge": 5579,
      "hiding": 5580,
      "Sweet": 5581,
      "mountains": 5582,
      "gained": 5583,
      "skyd": 5584,
      "possibly": 5585,
      "However_comma_": 5586,
      "Rec": 5587,
      "motorcy": 5588,
      "medicine": 5589,
      "disease": 5590,
      "ramen": 5591,
      "perspective": 5592,
      "unbelievable": 5593,
      "compassion": 5594,
      "August": 5595,
      "environment": 5596,
      "Birthday": 5597,
      "Con": 5598,
      "Fing": 5599,
      "Fort": 5600,
      "Ge": 5601,
      "Lou": 5602,
      "ban": 5603,
      "binge": 5604,
      "duty": 5605,
      "gal": 5606,
      "jeans": 5607,
      "pink": 5608,
      "tar": 5609,
      "vase": 5610,
      "##list": 5611,
      "##ih": 5612,
      "##bles": 5613,
      "##PS": 5614,
      "##FC": 5615,
      "##eral": 5616,
      "##made": 5617,
      "##vember": 5618,
      "beating": 5619,
      "##itor": 5620,
      "##owl": 5621,
      "onions": 5622,
      "stairs": 5623,
      "##aded": 5624,
      "anger": 5625,
      "rev": 5626,
      "rehab": 5627,
      "##urs": 5628,
      "baking": 5629,
      "awa": 5630,
      "awww": 5631,
      "mold": 5632,
      "joined": 5633,
      "cares": 5634,
      "convenient": 5635,
      "##icked": 5636,
      "prove": 5637,
      "diap": 5638,
      "little_comma_": 5639,
      "sex": 5640,
      "intim": 5641,
      "##acy": 5642,
      "##ples": 5643,
      "##plant": 5644,
      "##place": 5645,
      "said_comma_": 5646,
      "announ": 5647,
      "sweethear": 5648,
      "desper": 5649,
      "design": 5650,
      "situation_comma_": 5651,
      "heading": 5652,
      "Str": 5653,
      "doors": 5654,
      "terrify": 5655,
      "disappear": 5656,
      "beach_comma_": 5657,
      "catching": 5658,
      "fair_comma_": 5659,
      "##bbing": 5660,
      "Many": 5661,
      "guilt": 5662,
      "basic": 5663,
      "burden": 5664,
      "dressed": 5665,
      "potty": 5666,
      "grab": 5667,
      "admire": 5668,
      "Awww_comma_": 5669,
      "shirts": 5670,
      "Gotta": 5671,
      "trees": 5672,
      "True_comma_": 5673,
      "inspiring": 5674,
      "marketing": 5675,
      "bottom": 5676,
      "pepper": 5677,
      "dreading": 5678,
      "nightmares": 5679,
      "release": 5680,
      "discover": 5681,
      "horrifying": 5682,
      "beside": 5683,
      "allergic": 5684,
      "treasure": 5685,
      "toddler": 5686,
      "rejected": 5687,
      "excitement": 5688,
      "frequently": 5689,
      "exchange": 5690,
      "diapers": 5691,
      "3rd": 5692,
      "45": 5693,
      "None": 5694,
      "SU": 5695,
      "YOU": 5696,
      "ast": 5697,
      "bri": 5698,
      "bang": 5699,
      "err": 5700,
      "gorge": 5701,
      "ner": 5702,
      "sens": 5703,
      "teams": 5704,
      "vent": 5705,
      "yuck": 5706,
      "##ov": 5707,
      "##cut": 5708,
      "##tled": 5709,
      "##iam": 5710,
      "##hand": 5711,
      "##ercial": 5712,
      "toward": 5713,
      "##ories": 5714,
      "youth": 5715,
      "##anch": 5716,
      "becomes": 5717,
      "##iding": 5718,
      "##oop": 5719,
      "docu": 5720,
      "##chy": 5721,
      "##sey": 5722,
      "notes": 5723,
      "##ession": 5724,
      "hers": 5725,
      "surely": 5726,
      "Thr": 5727,
      "comed": 5728,
      "##aint": 5729,
      "spit": 5730,
      "bully": 5731,
      "offic": 5732,
      "leash": 5733,
      "lasts": 5734,
      "##happy": 5735,
      "##hamas": 5736,
      "section": 5737,
      "##istry": 5738,
      "terms": 5739,
      "terribly": 5740,
      "rooting": 5741,
      "thrown": 5742,
      "household": 5743,
      "##acing": 5744,
      "##ache": 5745,
      "swallow": 5746,
      "mom_comma_": 5747,
      "guess_comma_": 5748,
      "##ables": 5749,
      "drown": 5750,
      "payments": 5751,
      "aced": 5752,
      "months_comma_": 5753,
      "disaster": 5754,
      "scared_comma_": 5755,
      "trauma": 5756,
      "##ulture": 5757,
      "flip": 5758,
      "owners": 5759,
      "##llege": 5760,
      "younger_comma_": 5761,
      "birthday_comma_": 5762,
      "vacation_comma_": 5763,
      "tomorrow_comma_": 5764,
      "##ionship": 5765,
      "store_comma_": 5766,
      "instinct": 5767,
      "world_comma_": 5768,
      "raising": 5769,
      "skating": 5770,
      "counts": 5771,
      "messy": 5772,
      "fixing": 5773,
      "Whoa_comma_": 5774,
      "##ivity": 5775,
      "water_comma_": 5776,
      "treatment": 5777,
      "disturb": 5778,
      "case_comma_": 5779,
      "walls": 5780,
      "generally": 5781,
      "explore": 5782,
      "evil": 5783,
      "Great_comma_": 5784,
      "significant": 5785,
      "straw": 5786,
      "ghosts": 5787,
      "solid": 5788,
      "humans": 5789,
      "instructions": 5790,
      "bowling": 5791,
      "organic": 5792,
      "matches": 5793,
      "recipes": 5794,
      "NOT": 5795,
      "England": 5796,
      "peeved": 5797,
      "responsibilities": 5798,
      "College": 5799,
      "mentioned": 5800,
      "addiction": 5801,
      "Black": 5802,
      "info": 5803,
      "casino": 5804,
      "repeat": 5805,
      "smoothly": 5806,
      "keto": 5807,
      "calculus": 5808,
      "spelling": 5809,
      "folks": 5810,
      "alternative": 5811,
      "aggravating": 5812,
      "romantic": 5813,
      "gluten": 5814,
      "rules": 5815,
      "quarter": 5816,
      "Croatia": 5817,
      "mosquit": 5818,
      "aggressive": 5819,
      "Recently": 5820,
      "!.": 5821,
      "!\"": 5822,
      "City": 5823,
      "Game": 5824,
      "Lea": 5825,
      "Over": 5826,
      "Sad": 5827,
      "September": 5828,
      "cig": 5829,
      "dess": 5830,
      "hood": 5831,
      "hill": 5832,
      "homet": 5833,
      "mouse": 5834,
      "pic": 5835,
      "rice": 5836,
      "racking": 5837,
      "tas": 5838,
      "ut": 5839,
      "ultim": 5840,
      "wis": 5841,
      "wire": 5842,
      "wings": 5843,
      "yummy": 5844,
      "zone": 5845,
      "##of": 5846,
      "##nn": 5847,
      "##rant": 5848,
      "##ton": 5849,
      "##ik": 5850,
      "##mel": 5851,
      "##you": 5852,
      "##yer": 5853,
      "##hy": 5854,
      "##kids": 5855,
      "theater": 5856,
      "##oni": 5857,
      "##anke": 5858,
      "##anish": 5859,
      "##itary": 5860,
      "##ooh": 5861,
      "##unities": 5862,
      "asap": 5863,
      "baked": 5864,
      "anyways": 5865,
      "prevent": 5866,
      "monday": 5867,
      "##ers_comma_": 5868,
      "spa": 5869,
      "scold": 5870,
      "pred": 5871,
      "should_comma_": 5872,
      "coach": 5873,
      "male": 5874,
      "magic": 5875,
      "grind": 5876,
      "##usive": 5877,
      "stub": 5878,
      "Ha_comma_": 5879,
      "compare": 5880,
      "rob": 5881,
      "parcel": 5882,
      "##ization": 5883,
      "ohh": 5884,
      "around_comma_": 5885,
      "##agers": 5886,
      "##agging": 5887,
      "craving": 5888,
      "surprises": 5889,
      "written": 5890,
      "decl": 5891,
      "contrib": 5892,
      "stuffed": 5893,
      "prepar": 5894,
      "enough_comma_": 5895,
      "deals": 5896,
      "runs": 5897,
      "tough_comma_": 5898,
      "useful": 5899,
      "accused": 5900,
      "daddy": 5901,
      "interesting_comma_": 5902,
      "county": 5903,
      "change_comma_": 5904,
      "Christ": 5905,
      "eachother": 5906,
      "mothers": 5907,
      "fans": 5908,
      "medication": 5909,
      "fights": 5910,
      "##rupt": 5911,
      "ladies": 5912,
      "computers": 5913,
      "election": 5914,
      "blessings": 5915,
      "##berry": 5916,
      "joyful": 5917,
      "object": 5918,
      "smoke": 5919,
      "solution": 5920,
      "feedback": 5921,
      "depression": 5922,
      "opportunities": 5923,
      "posted": 5924,
      "reflect": 5925,
      "express": 5926,
      "glasses": 5927,
      "fortunately": 5928,
      "travelling": 5929,
      "challenge": 5930,
      "challenging": 5931,
      "Switch": 5932,
      "released": 5933,
      "scene": 5934,
      "political": 5935,
      "Mexico": 5936,
      "dancing": 5937,
      "including": 5938,
      "piano": 5939,
      "discipline": 5940,
      "errand": 5941,
      "saturday": 5942,
      "skydiving": 5943,
      "Fingers": 5944,
      "Louis": 5945,
      "dessert": 5946,
      "hometown": 5947,
      "5th": 5948,
      "Bar": 5949,
      "Friend": 5950,
      "Las": 5951,
      "Master": 5952,
      "Rus": 5953,
      "Talk": 5954,
      "War": 5955,
      "Wal": 5956,
      "bree": 5957,
      "hike": 5958,
      "lame": 5959,
      "nut": 5960,
      "pitch": 5961,
      "pushing": 5962,
      "rip": 5963,
      "tatt": 5964,
      "zero": 5965,
      "##elly": 5966,
      "##uct": 5967,
      "##uff": 5968,
      "##uition": 5969,
      "##iver": 5970,
      "##iant": 5971,
      "##iens": 5972,
      "##bour": 5973,
      "##yy": 5974,
      "##west": 5975,
      "##ST": 5976,
      "##etime": 5977,
      "island": 5978,
      "##ari": 5979,
      "##oooo": 5980,
      "##iment": 5981,
      "lift": 5982,
      "stro": 5983,
      "##cha": 5984,
      "ang": 5985,
      "##urning": 5986,
      "shor": 5987,
      "ship": 5988,
      "awake": 5989,
      "plants": 5990,
      "chest": 5991,
      "##ils": 5992,
      "overse": 5993,
      "arms": 5994,
      "fac": 5995,
      "##cience": 5996,
      "still_comma_": 5997,
      "diving": 5998,
      "##ealing": 5999,
      "firm": 6000,
      "unne": 6001,
      "unhappy": 6002,
      "intention": 6003,
      "happened_comma_": 6004,
      "players": 6005,
      "##aco": 6006,
      "blamed": 6007,
      "chew": 6008,
      "chees": 6009,
      "channel": 6010,
      "belt": 6011,
      "show_comma_": 6012,
      "twins": 6013,
      "##eaming": 6014,
      "enjoyable": 6015,
      "own_comma_": 6016,
      "leftovers": 6017,
      "hubby": 6018,
      "neighbour": 6019,
      "highschool": 6020,
      "dealership": 6021,
      "papers": 6022,
      "instantly": 6023,
      "skunk": 6024,
      "hoped": 6025,
      "Chinese": 6026,
      "point_comma_": 6027,
      "worse_comma_": 6028,
      "incident": 6029,
      "consist": 6030,
      "regard": 6031,
      "Doesn": 6032,
      "treats": 6033,
      "Anyway": 6034,
      "##ension": 6035,
      "costs": 6036,
      "smells": 6037,
      "tastes": 6038,
      "impressive_comma_": 6039,
      "employer": 6040,
      "salary": 6041,
      "sense_comma_": 6042,
      "evac": 6043,
      "spread": 6044,
      "pieces": 6045,
      "turtle": 6046,
      "severe": 6047,
      "unexpectedly": 6048,
      "bench": 6049,
      "Ok_comma_": 6050,
      "respectful": 6051,
      "repaired": 6052,
      "theres": 6053,
      "professor": 6054,
      "satisfying": 6055,
      "grandpa": 6056,
      "tips": 6057,
      "auto": 6058,
      "sweating": 6059,
      "Brother": 6060,
      "anticipation": 6061,
      "chatting": 6062,
      "safely": 6063,
      "hype": 6064,
      "counter": 6065,
      "owe": 6066,
      "split": 6067,
      "racing": 6068,
      "suffering": 6069,
      "celebrated": 6070,
      "potatoes": 6071,
      "##boys": 6072,
      "puppies": 6073,
      "rabbit": 6074,
      "##cript": 6075,
      "isolated": 6076,
      "claim": 6077,
      "clothing": 6078,
      "##esla": 6079,
      "soda": 6080,
      "language": 6081,
      "appetite": 6082,
      "weapon": 6083,
      "vibes": 6084,
      "ingred": 6085,
      "goodbye": 6086,
      "motorcycle": 6087,
      "tattoo": 6088,
      "Aust": 6089,
      "Bro": 6090,
      "Cong": 6091,
      "Cats": 6092,
      "Hu": 6093,
      "HR": 6094,
      "HO": 6095,
      "Kid": 6096,
      "ME": 6097,
      "Rain": 6098,
      "Tuesday": 6099,
      "bake": 6100,
      "cy": 6101,
      "cough": 6102,
      "cud": 6103,
      "duck": 6104,
      "ec": 6105,
      "east": 6106,
      "ego": 6107,
      "hip": 6108,
      "kay": 6109,
      "lu": 6110,
      "nest": 6111,
      "national": 6112,
      "obs": 6113,
      "tun": 6114,
      "wound": 6115,
      "yog": 6116,
      "##oke": 6117,
      "##nies": 6118,
      "##ey": 6119,
      "##upt": 6120,
      "##bul": 6121,
      "##zen": 6122,
      "##walk": 6123,
      "##inated": 6124,
      "mexic": 6125,
      "##ired_comma_": 6126,
      "outl": 6127,
      "repr": 6128,
      "aliens": 6129,
      "timing": 6130,
      "about_comma_": 6131,
      "exotic": 6132,
      "##raging": 6133,
      "moves": 6134,
      "veg": 6135,
      "deb": 6136,
      "carried": 6137,
      "buck": 6138,
      "conc": 6139,
      "brut": 6140,
      "madden": 6141,
      "##osis": 6142,
      "needing": 6143,
      "kindness": 6144,
      "homemade": 6145,
      "##uses": 6146,
      "unw": 6147,
      "uneas": 6148,
      "theirs": 6149,
      "acts": 6150,
      "everything_comma_": 6151,
      "diss": 6152,
      "disag": 6153,
      "##aging": 6154,
      "pharma": 6155,
      "contract": 6156,
      "wins": 6157,
      "attemp": 6158,
      "##ashed": 6159,
      "percent": 6160,
      "promising": 6161,
      "sick_comma_": 6162,
      "handed": 6163,
      "passes": 6164,
      "interests": 6165,
      "hobb": 6166,
      "skip": 6167,
      "headache": 6168,
      "interviewed": 6169,
      "animals_comma_": 6170,
      "pizzas": 6171,
      "lonesome": 6172,
      "lessons": 6173,
      "honestly_comma_": 6174,
      "snugg": 6175,
      "movies_comma_": 6176,
      "##iana": 6177,
      "entit": 6178,
      "milest": 6179,
      "reminder": 6180,
      "anyway_comma_": 6181,
      "complaining": 6182,
      "bothers": 6183,
      "starving": 6184,
      "reported": 6185,
      "smoking": 6186,
      "achie": 6187,
      "create": 6188,
      "Definitely_comma_": 6189,
      "investment": 6190,
      "specifically": 6191,
      "tennis": 6192,
      "humid": 6193,
      "lifting": 6194,
      "pleasure": 6195,
      "instructor": 6196,
      "mortg": 6197,
      "Thankfully_comma_": 6198,
      "occasionally": 6199,
      "Kinda": 6200,
      "improvement": 6201,
      "affected": 6202,
      "naturally": 6203,
      "protective": 6204,
      "spoiled": 6205,
      "suprised": 6206,
      "HAHA": 6207,
      "besides": 6208,
      "communicate": 6209,
      "WHAT": 6210,
      "suffer": 6211,
      "distracted": 6212,
      "Honestly": 6213,
      "rotten": 6214,
      "##bull": 6215,
      "celebrating": 6216,
      "Funny": 6217,
      "miracle": 6218,
      "thunderst": 6219,
      "increase": 6220,
      "radio": 6221,
      "buffet": 6222,
      "trailer": 6223,
      "favour": 6224,
      "Korean": 6225,
      "outdoors": 6226,
      "episode": 6227,
      "abandoned": 6228,
      "Otherwise": 6229,
      "flavor": 6230,
      "strangers": 6231,
      "Febru": 6232,
      "airplane": 6233,
      "intimid": 6234,
      "gorgeous": 6235,
      "preparation": 6236,
      "hobbies": 6237,
      "Acc": 6238,
      "BM": 6239,
      "DM": 6240,
      "Dri": 6241,
      "Food": 6242,
      "Find": 6243,
      "Girl": 6244,
      "Mo": 6245,
      "Pr": 6246,
      "Pan": 6247,
      "Se": 6248,
      "Sm": 6249,
      "Six": 6250,
      "Took": 6251,
      "Taco": 6252,
      "Watch": 6253,
      "boun": 6254,
      "cities": 6255,
      "culture": 6256,
      "fost": 6257,
      "hates": 6258,
      "iP": 6259,
      "lined": 6260,
      "mature": 6261,
      "pin": 6262,
      "peop": 6263,
      "pace": 6264,
      "pity": 6265,
      "shat": 6266,
      "sake": 6267,
      "tit": 6268,
      "tires": 6269,
      "yikes": 6270,
      "##ok": 6271,
      "##cast": 6272,
      "##now": 6273,
      "##ror": 6274,
      "##rad": 6275,
      "##the": 6276,
      "##tles": 6277,
      "##uing": 6278,
      "##we": 6279,
      "##was": 6280,
      "thou": 6281,
      "##ases": 6282,
      "##iter": 6283,
      "##ownt": 6284,
      "##step": 6285,
      "##ara": 6286,
      "forth": 6287,
      "##ism": 6288,
      "##vert": 6289,
      "golf": 6290,
      "##ament": 6291,
      "upd": 6292,
      "##unting": 6293,
      "exh": 6294,
      "exten": 6295,
      "##ulate": 6296,
      "plu": 6297,
      "chores": 6298,
      "moder": 6299,
      "news_comma_": 6300,
      "clock": 6301,
      "clums": 6302,
      "dem": 6303,
      "##olves": 6304,
      "##cist": 6305,
      "covers": 6306,
      "pros": 6307,
      "diaper": 6308,
      "wave": 6309,
      "unemp": 6310,
      "robb": 6311,
      "wished": 6312,
      "appear": 6313,
      "appropri": 6314,
      "throughout": 6315,
      "disres": 6316,
      "##play": 6317,
      "flir": 6318,
      "firew": 6319,
      "annual": 6320,
      "highly": 6321,
      "tested": 6322,
      "grandch": 6323,
      "##orks": 6324,
      "slide": 6325,
      "hits": 6326,
      "dads": 6327,
      "teh": 6328,
      "visits": 6329,
      "courses": 6330,
      "ski": 6331,
      "gaming": 6332,
      "interviewing": 6333,
      "messing": 6334,
      "freez": 6335,
      "commercial": 6336,
      "older_comma_": 6337,
      "meds": 6338,
      "supporting": 6339,
      "Trust": 6340,
      "parks": 6341,
      "holds": 6342,
      "lawyer": 6343,
      "warrant": 6344,
      "thanksgiving": 6345,
      "assist": 6346,
      "haircut": 6347,
      "address": 6348,
      "##ground": 6349,
      "evicted": 6350,
      "competitive": 6351,
      "struggled": 6352,
      "fitness": 6353,
      "causes": 6354,
      "sunny": 6355,
      "wrecked": 6356,
      "clearly": 6357,
      "artist": 6358,
      "creatures": 6359,
      "invested": 6360,
      "sticky": 6361,
      "##ronic": 6362,
      "##olences": 6363,
      "emergenc": 6364,
      "teenagers": 6365,
      "autom": 6366,
      "pushed": 6367,
      "goldfish": 6368,
      "hyped": 6369,
      "circ": 6370,
      "dumped": 6371,
      "activity": 6372,
      "further": 6373,
      "Honestly_comma_": 6374,
      "renew": 6375,
      "##standing": 6376,
      "vegetables": 6377,
      "google": 6378,
      "escape": 6379,
      "insec": 6380,
      "scheduled": 6381,
      "inconvenient": 6382,
      "overseas": 6383,
      "mortgage": 6384,
      "BMW": 6385,
      "fireworks": 6386,
      "400": 6387,
      "?\"": 6388,
      "AN": 6389,
      "Back": 6390,
      "Ever": 6391,
      "Event": 6392,
      "Felt": 6393,
      "Foot": 6394,
      "Gonna": 6395,
      "Jer": 6396,
      "Nah": 6397,
      "Parents": 6398,
      "Psych": 6399,
      "Ter": 6400,
      "VER": 6401,
      "Wed": 6402,
      "brew": 6403,
      "cer": 6404,
      "cast": 6405,
      "ger": 6406,
      "kee": 6407,
      "lean": 6408,
      "mice": 6409,
      "tent": 6410,
      "tie": 6411,
      "##that": 6412,
      "##scle": 6413,
      "##uate": 6414,
      "##down": 6415,
      "##free": 6416,
      "##bowl": 6417,
      "##AY": 6418,
      "##ED": 6419,
      "thin": 6420,
      "threat": 6421,
      "##inist": 6422,
      "##err": 6423,
      "tort": 6424,
      "##esent": 6425,
      "hallow": 6426,
      "##ooked": 6427,
      "##icag": 6428,
      "##chel": 6429,
      "whil": 6430,
      "##cked": 6431,
      "worn": 6432,
      "fee": 6433,
      "knife": 6434,
      "##ural": 6435,
      "##urder": 6436,
      "##urric": 6437,
      "tools": 6438,
      "##race": 6439,
      "donuts": 6440,
      "plates": 6441,
      "mush": 6442,
      "muscle": 6443,
      "lotto": 6444,
      "harsh": 6445,
      "class_comma_": 6446,
      "vegg": 6447,
      "conso": 6448,
      "brush": 6449,
      "branch": 6450,
      "overd": 6451,
      "lemon": 6452,
      "November": 6453,
      "part_comma_": 6454,
      "beforehand": 6455,
      "religious": 6456,
      "end_comma_": 6457,
      "finishing": 6458,
      "wishes": 6459,
      "carefree": 6460,
      "understands": 6461,
      "interact": 6462,
      "cris": 6463,
      "##able_comma_": 6464,
      "also_comma_": 6465,
      "phase": 6466,
      "cats_comma_": 6467,
      "idiot": 6468,
      "Whenever": 6469,
      "mark": 6470,
      "boot": 6471,
      "dealt": 6472,
      "cutest": 6473,
      "slim": 6474,
      "slip": 6475,
      "##umes": 6476,
      "sket": 6477,
      "skate": 6478,
      "storage": 6479,
      "polite": 6480,
      "picky": 6481,
      "impression": 6482,
      "opens": 6483,
      "watermel": 6484,
      "conscious": 6485,
      "jealousy": 6486,
      "setting": 6487,
      "smart_comma_": 6488,
      "lightning": 6489,
      "failing": 6490,
      "forgetting": 6491,
      "parents_comma_": 6492,
      "barking": 6493,
      "stinks_comma_": 6494,
      "assign": 6495,
      "closest": 6496,
      "Nothing_comma_": 6497,
      "evidence": 6498,
      "turkey": 6499,
      "graph": 6500,
      "transition": 6501,
      "extreme": 6502,
      "wrecking": 6503,
      "refuse": 6504,
      "Play": 6505,
      "booked": 6506,
      "tempor": 6507,
      "panc": 6508,
      "inspir": 6509,
      "inspired": 6510,
      "regularly": 6511,
      "ignored": 6512,
      "request": 6513,
      "crowded": 6514,
      "overwhelmed": 6515,
      "climate": 6516,
      "USA": 6517,
      "searching": 6518,
      "remain": 6519,
      "pitbull": 6520,
      "route": 6521,
      "directly": 6522,
      "totaled": 6523,
      "horrified": 6524,
      "susp": 6525,
      "jacket": 6526,
      "lord_comma_": 6527,
      "towel": 6528,
      "belongings": 6529,
      "effects": 6530,
      "shady": 6531,
      "climbing": 6532,
      "rollercoasters": 6533,
      "Hello": 6534,
      "irked": 6535,
      "##rimp": 6536,
      "foreign": 6537,
      "embarrassing_comma_": 6538,
      "Remember": 6539,
      "cockro": 6540,
      "Bahamas": 6541,
      "awaiting": 6542,
      "sweetheart": 6543,
      "tasks": 6544,
      "##ankees": 6545,
      "shorter": 6546,
      "ingredients": 6547,
      "represent": 6548,
      "disagree": 6549,
      "entitled": 6550,
      "unemploy": 6551,
      "Eventually": 6552,
      "VERY": 6553,
      "keeper": 6554,
      "halloween": 6555,
      "console": 6556,
      "26": 6557,
      "4th": 6558,
      "CO": 6559,
      "Cause": 6560,
      "Day": 6561,
      "Need": 6562,
      "Oops": 6563,
      "October": 6564,
      "Ther": 6565,
      "Tesla": 6566,
      "bre": 6567,
      "bars": 6568,
      "dough": 6569,
      "downt": 6570,
      "eww": 6571,
      "junior": 6572,
      "lat": 6573,
      "lent": 6574,
      "mer": 6575,
      "tense": 6576,
      "ver": 6577,
      "ven": 6578,
      "van": 6579,
      "vict": 6580,
      "wide": 6581,
      "wip": 6582,
      "##crif": 6583,
      "##van": 6584,
      "##vard": 6585,
      "##ek": 6586,
      "##round": 6587,
      "##tt": 6588,
      "##umb": 6589,
      "##foot": 6590,
      "##zum": 6591,
      "##SS": 6592,
      "##inal": 6593,
      "##ndays": 6594,
      "##enced": 6595,
      "bee": 6596,
      "beef": 6597,
      "washing": 6598,
      "##static": 6599,
      "##ette": 6600,
      "##uting": 6601,
      "infu": 6602,
      "##arp": 6603,
      "##arent": 6604,
      "##ary_comma_": 6605,
      "stable": 6606,
      "states": 6607,
      "##char": 6608,
      "weigh": 6609,
      "##oodles": 6610,
      "sushi": 6611,
      "##ppings": 6612,
      "feat": 6613,
      "outf": 6614,
      "outcome": 6615,
      "los": 6616,
      "lover": 6617,
      "##ender": 6618,
      "##urger": 6619,
      "shining": 6620,
      "knowledge": 6621,
      "hero": 6622,
      "aspect": 6623,
      "##raph": 6624,
      "theme": 6625,
      "##ilot": 6626,
      "were_comma_": 6627,
      "command": 6628,
      "backed": 6629,
      "spook": 6630,
      "debit": 6631,
      "december": 6632,
      "sacrif": 6633,
      "pric": 6634,
      "prison": 6635,
      "shoulder": 6636,
      "makeup": 6637,
      "try_comma_": 6638,
      "factor": 6639,
      "Nobody": 6640,
      "##uss": 6641,
      "unit": 6642,
      "##mentia": 6643,
      "##rats": 6644,
      "finals": 6645,
      "swell": 6646,
      "reco": 6647,
      "##gets": 6648,
      "realizing": 6649,
      "strate": 6650,
      "highest": 6651,
      "test_comma_": 6652,
      "daughter_comma_": 6653,
      "prompt": 6654,
      "headphones": 6655,
      "##ograph": 6656,
      "##ups": 6657,
      "pain_comma_": 6658,
      "summer_comma_": 6659,
      "policy": 6660,
      "mine_comma_": 6661,
      "10th": 6662,
      "##rete": 6663,
      "Choc": 6664,
      "Children": 6665,
      "points": 6666,
      "range": 6667,
      "served": 6668,
      "indoor": 6669,
      "individ": 6670,
      "dinner_comma_": 6671,
      "completed": 6672,
      "walks": 6673,
      "expensive_comma_": 6674,
      "selfish": 6675,
      "treating": 6676,
      "cake_comma_": 6677,
      "location": 6678,
      "Excellent": 6679,
      "lunches": 6680,
      "##ruction": 6681,
      "?!?!": 6682,
      "Ahh": 6683,
      "services": 6684,
      "propose": 6685,
      "streets": 6686,
      "stronger": 6687,
      "complaint": 6688,
      "150": 6689,
      "burrit": 6690,
      "hospice": 6691,
      "signs": 6692,
      "Like_comma_": 6693,
      "##mony": 6694,
      "shaken": 6695,
      "behave": 6696,
      "pulling": 6697,
      "Neither": 6698,
      "solve": 6699,
      "creative": 6700,
      "investig": 6701,
      "stepping": 6702,
      "thrill": 6703,
      "switching": 6704,
      "condolences": 6705,
      "snap": 6706,
      "keyboard": 6707,
      "auth": 6708,
      "Disneyland": 6709,
      "Another": 6710,
      "organized": 6711,
      "squir": 6712,
      "required": 6713,
      "THAT": 6714,
      "Sure_comma_": 6715,
      "adoption": 6716,
      "farted": 6717,
      "bumper": 6718,
      "believed": 6719,
      "Physic": 6720,
      "crawling": 6721,
      "traumat": 6722,
      "shadow": 6723,
      "Feeling": 6724,
      "cabin": 6725,
      "homeschool": 6726,
      "Harvard": 6727,
      "##nesday": 6728,
      "##market": 6729,
      "athlet": 6730,
      "athletic": 6731,
      "slightly": 6732,
      "mechanic": 6733,
      "transportation": 6734,
      "classmates": 6735,
      "##ursday": 6736,
      "terrifying_comma_": 6737,
      "error": 6738,
      "stroke": 6739,
      "unnecessary": 6740,
      "ecstatic": 6741,
      "February": 6742,
      "DMV": 6743,
      "disrespect": 6744,
      "##zumel": 6745,
      "%.": 6746,
      "Air": 6747,
      "ALL": 6748,
      "Cam": 6749,
      "Ford": 6750,
      "HE": 6751,
      "Ir": 6752,
      "Id": 6753,
      "July": 6754,
      "Mus": 6755,
      "NE": 6756,
      "Out": 6757,
      "Put": 6758,
      "Sl": 6759,
      "Way": 6760,
      "Wars": 6761,
      "Yout": 6762,
      "corr": 6763,
      "cakes": 6764,
      "dates": 6765,
      "fry": 6766,
      "fal": 6767,
      "ge": 6768,
      "gear": 6769,
      "jet": 6770,
      "jugg": 6771,
      "karma": 6772,
      "mild": 6773,
      "master": 6774,
      "murder": 6775,
      "oper": 6776,
      "oops": 6777,
      "pour": 6778,
      "site": 6779,
      "##ca": 6780,
      "##ai": 6781,
      "##aff": 6782,
      "##ech": 6783,
      "##rs": 6784,
      "##row": 6785,
      "##rot": 6786,
      "##put": 6787,
      "##ipe": 6788,
      "##ds": 6789,
      "##donald": 6790,
      "##bucks": 6791,
      "##zard": 6792,
      "##ON": 6793,
      "##inci": 6794,
      "toes": 6795,
      "toppings": 6796,
      "##lls": 6797,
      "##asc": 6798,
      "##ashing": 6799,
      "##enn": 6800,
      "##ene": 6801,
      "##ench": 6802,
      "hamb": 6803,
      "##ota": 6804,
      "##aries": 6805,
      "##arily": 6806,
      "dos": 6807,
      "##ic_comma_": 6808,
      "##riating": 6809,
      "sting": 6810,
      "stood": 6811,
      "Italy": 6812,
      "##sequ": 6813,
      "ank": 6814,
      "rear": 6815,
      "sue": 6816,
      "outstanding": 6817,
      "##alian": 6818,
      "alert": 6819,
      "##ending": 6820,
      "workplace": 6821,
      "bachel": 6822,
      "Three": 6823,
      "spin": 6824,
      "dementia": 6825,
      "manners": 6826,
      "consequ": 6827,
      "##olve": 6828,
      "jobs_comma_": 6829,
      "mad_comma_": 6830,
      "kindergarten": 6831,
      "div": 6832,
      "##ellig": 6833,
      "whoever": 6834,
      "unac": 6835,
      "couples": 6836,
      "ohh_comma_": 6837,
      "ours": 6838,
      "payed": 6839,
      "guy_comma_": 6840,
      "eats": 6841,
      "enjoys": 6842,
      "craft": 6843,
      "flags": 6844,
      "upside": 6845,
      "memorable": 6846,
      "cleaner": 6847,
      "confess": 6848,
      "far_comma_": 6849,
      "imagination": 6850,
      "perman": 6851,
      "healing": 6852,
      "stops": 6853,
      "hours_comma_": 6854,
      "baby_comma_": 6855,
      "##ume": 6856,
      "retake": 6857,
      "returning": 6858,
      "pasta": 6859,
      "experience_comma_": 6860,
      "asks": 6861,
      "##shirt": 6862,
      "Atl": 6863,
      "pointed": 6864,
      "##less_comma_": 6865,
      "moment_comma_": 6866,
      "##iances": 6867,
      "problem_comma_": 6868,
      "metal": 6869,
      "rained": 6870,
      "exactly_comma_": 6871,
      "lately_comma_": 6872,
      "musician": 6873,
      "tonight_comma_": 6874,
      "hunt": 6875,
      "military": 6876,
      "coverage": 6877,
      "proposed": 6878,
      "unfortunately_comma_": 6879,
      "burgers": 6880,
      "appliances": 6881,
      "occup": 6882,
      "competing": 6883,
      "elev": 6884,
      "shame_comma_": 6885,
      "buddy_comma_": 6886,
      "meantime": 6887,
      "Indeed_comma_": 6888,
      "copy": 6889,
      "scratched": 6890,
      "##connect": 6891,
      "repairs": 6892,
      "thrift": 6893,
      "Wouldn": 6894,
      "constant": 6895,
      "leads": 6896,
      "depending": 6897,
      "instrument": 6898,
      "discou": 6899,
      "golden": 6900,
      "Woah": 6901,
      "##!!!!": 6902,
      "suprising": 6903,
      "benefit": 6904,
      "tournaments": 6905,
      "crossing": 6906,
      "fiancee": 6907,
      "Omg_comma_": 6908,
      "dedicated": 6909,
      "originally": 6910,
      "loads": 6911,
      "flashlight": 6912,
      "Feels": 6913,
      "labor": 6914,
      "collea": 6915,
      "soooo": 6916,
      "convince": 6917,
      "chemical": 6918,
      "chemistry": 6919,
      "bunnies": 6920,
      "fruit": 6921,
      "improving": 6922,
      "busted": 6923,
      "fulfilling": 6924,
      "delayed": 6925,
      "hamster": 6926,
      "Looks": 6927,
      "referring": 6928,
      "##crast": 6929,
      "Canada": 6930,
      "pepperoni": 6931,
      "picn": 6932,
      "stubborn": 6933,
      "Friends": 6934,
      "Walmart": 6935,
      "Anyway_comma_": 6936,
      "kayaking": 6937,
      "yoga": 6938,
      "vegas": 6939,
      "brutal": 6940,
      "uneasy": 6941,
      "milestone": 6942,
      "foster": 6943,
      "peoples": 6944,
      "shattered": 6945,
      "flirting": 6946,
      "Football": 6947,
      "Terrible": 6948,
      "Youtube": 6949,
      "corrupt": 6950,
      "bachelor": 6951,
      "23": 6952,
      "65": 6953,
      "6th": 6954,
      "AS": 6955,
      "Bus": 6956,
      "Cow": 6957,
      "DI": 6958,
      "Honda": 6959,
      "IN": 6960,
      "King": 6961,
      "Long": 6962,
      "Mad": 6963,
      "Pre": 6964,
      "Qu": 6965,
      "Ro": 6966,
      "Spr": 6967,
      "Ten": 6968,
      "Uber": 6969,
      "UFC": 6970,
      "Winter": 6971,
      "aid": 6972,
      "bikes": 6973,
      "ce": 6974,
      "cul": 6975,
      "cass": 6976,
      "etern": 6977,
      "fri": 6978,
      "rash": 6979,
      "rates": 6980,
      "rural": 6981,
      "sore": 6982,
      "ur": 6983,
      "uber": 6984,
      "vit": 6985,
      "##oves": 6986,
      "##oons": 6987,
      "##af": 6988,
      "##apped": 6989,
      "##pa": 6990,
      "##pot": 6991,
      "##ipp": 6992,
      "##ift": 6993,
      "##ibb": 6994,
      "##ield": 6995,
      "##mate": 6996,
      "##mission": 6997,
      "##bled": 6998,
      "##gon": 6999,
      "##gile": 7000,
      "##hone": 7001,
      "##hole": 7002,
      "##AM": 7003,
      "##TH": 7004,
      "thick": 7005,
      "throat": 7006,
      "##inate": 7007,
      "##inos": 7008,
      "##ata": 7009,
      "##eries": 7010,
      "##orate": 7011,
      "##lliant": 7012,
      "##asy": 7013,
      "##any": 7014,
      "##anny": 7015,
      "began": 7016,
      "##eth": 7017,
      "##arant": 7018,
      "##elect": 7019,
      "##ghett": 7020,
      "##ications": 7021,
      "sticking": 7022,
      "##verted": 7023,
      "among": 7024,
      "worris": 7025,
      "abro": 7026,
      "justice": 7027,
      "fees": 7028,
      "fellow": 7029,
      "##ams": 7030,
      "##aming": 7031,
      "##amel": 7032,
      "sharp": 7033,
      "happiest": 7034,
      "##anta": 7035,
      "exter": 7036,
      "##raught": 7037,
      "seek": 7038,
      "chase": 7039,
      "mug": 7040,
      "newer": 7041,
      "newest": 7042,
      "guests": 7043,
      "deer": 7044,
      "trop": 7045,
      "prote": 7046,
      "bru": 7047,
      "overnight": 7048,
      "##igan": 7049,
      "enem": 7050,
      "faces": 7051,
      "faced": 7052,
      "lease": 7053,
      "##osit": 7054,
      "weeks_comma_": 7055,
      "unif": 7056,
      "##ists": 7057,
      "##istics": 7058,
      "actor": 7059,
      "downstairs": 7060,
      "appartment": 7061,
      "removed": 7062,
      "payday": 7063,
      "disp": 7064,
      "disconnect": 7065,
      "letters": 7066,
      "##soci": 7067,
      "reserv": 7068,
      "childish": 7069,
      "##prit": 7070,
      "trying_comma_": 7071,
      "catfish": 7072,
      "trigg": 7073,
      "elses": 7074,
      "horribly": 7075,
      "grandkids": 7076,
      "annoys": 7077,
      "lap": 7078,
      "rooms": 7079,
      "reason_comma_": 7080,
      "reasonable": 7081,
      "slice": 7082,
      "checkout": 7083,
      "companion": 7084,
      "healthier": 7085,
      "minds": 7086,
      "fast_comma_": 7087,
      "grows": 7088,
      "often_comma_": 7089,
      "gift_comma_": 7090,
      "mother_comma_": 7091,
      "indeed_comma_": 7092,
      "surprised_comma_": 7093,
      "jealous_comma_": 7094,
      "driving_comma_": 7095,
      "married_comma_": 7096,
      "managers": 7097,
      "smaller": 7098,
      "sidewalk": 7099,
      "roads": 7100,
      "advise": 7101,
      "returns": 7102,
      "killer": 7103,
      "promotion_comma_": 7104,
      "music_comma_": 7105,
      "distraught": 7106,
      "season_comma_": 7107,
      "purs": 7108,
      "basis": 7109,
      "subst": 7110,
      "elementary": 7111,
      "english": 7112,
      "##ators": 7113,
      "himself_comma_": 7114,
      "Plus_comma_": 7115,
      "loaned": 7116,
      "humble": 7117,
      "heav": 7118,
      "Spanish": 7119,
      "conversations": 7120,
      "requires": 7121,
      "flooded": 7122,
      "shipping": 7123,
      "button": 7124,
      "suprise": 7125,
      "fondly": 7126,
      "racco": 7127,
      "determination": 7128,
      "unsure": 7129,
      "babysitter": 7130,
      "hostel": 7131,
      "convin": 7132,
      "poisoning": 7133,
      "kitty": 7134,
      "fragile": 7135,
      "sympath": 7136,
      "symptom": 7137,
      "surprisingly": 7138,
      "counseling": 7139,
      "troubles": 7140,
      "slammed": 7141,
      "essent": 7142,
      "source": 7143,
      "website": 7144,
      "magical": 7145,
      "hesitant": 7146,
      "influence": 7147,
      "festival": 7148,
      "desperate": 7149,
      "SUV": 7150,
      "comedy": 7151,
      "disturbing": 7152,
      "##cription": 7153,
      "concrete": 7154,
      "pharmacy": 7155,
      "Psychology": 7156,
      "cereal": 7157,
      "##icago": 7158,
      "pancreat": 7159,
      "infuriating": 7160,
      "spooky": 7161,
      "priceless": 7162,
      "recovery": 7163,
      "false": 7164,
      "unaccept": 7165,
      "picnic": 7166,
      "ceiling": 7167,
      "culprit": 7168,
      "##ghetti": 7169,
      "worrisome": 7170,
      "abroad": 7171,
      "protein": 7172,
      "600": 7173,
      "75": 7174,
      "95": 7175,
      "Asia": 7176,
      "BB": 7177,
      "Bad": 7178,
      "Cost": 7179,
      "Gos": 7180,
      "GPA": 7181,
      "Home": 7182,
      "Hill": 7183,
      "Hurric": 7184,
      "ID": 7185,
      "Lab": 7186,
      "Law": 7187,
      "Leg": 7188,
      "Making": 7189,
      "Ol": 7190,
      "Pay": 7191,
      "Pres": 7192,
      "Sy": 7193,
      "Ty": 7194,
      "ais": 7195,
      "aud": 7196,
      "ble": 7197,
      "bean": 7198,
      "bark": 7199,
      "col": 7200,
      "civ": 7201,
      "gall": 7202,
      "kitt": 7203,
      "kicking": 7204,
      "obl": 7205,
      "pad": 7206,
      "pier": 7207,
      "tel": 7208,
      "tshirt": 7209,
      "ug": 7210,
      "wand": 7211,
      "wif": 7212,
      "##lin": 7213,
      "##ras": 7214,
      "##pack": 7215,
      "##illy": 7216,
      "##ique": 7217,
      "##mit": 7218,
      "##bits": 7219,
      "##ht": 7220,
      "##head": 7221,
      "##kill": 7222,
      "##watch": 7223,
      "##AC": 7224,
      "##IC": 7225,
      "##LY": 7226,
      "##inating": 7227,
      "##eric": 7228,
      "##orse": 7229,
      "wasp": 7230,
      "##utious": 7231,
      "of_comma_": 7232,
      "##arian": 7233,
      "##ario": 7234,
      "dove": 7235,
      "##icians": 7236,
      "whom": 7237,
      "neice": 7238,
      "summ": 7239,
      "americ": 7240,
      "##urgers": 7241,
      "shrimp": 7242,
      "happily": 7243,
      "alley": 7244,
      "##ulting": 7245,
      "noble": 7246,
      "novel": 7247,
      "would_comma_": 7248,
      "Though": 7249,
      "##venience": 7250,
      "comics": 7251,
      "spar": 7252,
      "jokes": 7253,
      "carbs": 7254,
      "caramel": 7255,
      "##ffle": 7256,
      "##mph": 7257,
      "##osen": 7258,
      "##cile": 7259,
      "procrast": 7260,
      "help_comma_": 7261,
      "grump": 7262,
      "##usion": 7263,
      "Happ": 7264,
      "intellig": 7265,
      "useless": 7266,
      "underdog": 7267,
      "tag": 7268,
      "tape": 7269,
      "sadness": 7270,
      "##izes": 7271,
      "recital": 7272,
      "blink": 7273,
      "blowing": 7274,
      "why_comma_": 7275,
      "##oston": 7276,
      "chef": 7277,
      "##aughty": 7278,
      "##aughter": 7279,
      "least_comma_": 7280,
      "surround": 7281,
      "driven": 7282,
      "trap": 7283,
      "realistic": 7284,
      "brother_comma_": 7285,
      "puke": 7286,
      "walmart": 7287,
      "sweetest": 7288,
      "##magine": 7289,
      "husky": 7290,
      "horn": 7291,
      "supermarket": 7292,
      "bod": 7293,
      "##certain": 7294,
      "birthdays": 7295,
      "move_comma_": 7296,
      "roomate": 7297,
      "relaxation": 7298,
      "mini": 7299,
      "Sorry_comma_": 7300,
      "gifted": 7301,
      "fan_comma_": 7302,
      "frustrating_comma_": 7303,
      "weird_comma_": 7304,
      "side_comma_": 7305,
      "charging": 7306,
      "fall_comma_": 7307,
      "rains": 7308,
      "singer": 7309,
      "deposit": 7310,
      "cute_comma_": 7311,
      "LOT": 7312,
      "boyfriends": 7313,
      "meetings": 7314,
      "musicians": 7315,
      "halfway": 7316,
      "Death": 7317,
      "apartment_comma_": 7318,
      "devil": 7319,
      "propos": 7320,
      "added": 7321,
      "University": 7322,
      "ladder": 7323,
      "bothered": 7324,
      "nephews": 7325,
      "placed": 7326,
      "struggles": 7327,
      "secretly": 7328,
      "dressing": 7329,
      "candid": 7330,
      "potential": 7331,
      "mainten": 7332,
      "valid": 7333,
      "emotionally": 7334,
      "ballet": 7335,
      "deeply": 7336,
      "approached": 7337,
      "explained": 7338,
      "construction": 7339,
      "cautious": 7340,
      "provider": 7341,
      "instruments": 7342,
      "technically": 7343,
      "odds": 7344,
      "expired": 7345,
      "199": 7346,
      "Still_comma_": 7347,
      "carrying": 7348,
      "texted": 7349,
      "hello": 7350,
      "hurricanes": 7351,
      "blocked": 7352,
      "sprayed": 7353,
      "nailed": 7354,
      "Smart": 7355,
      "freakin": 7356,
      "Finan": 7357,
      "Scot": 7358,
      "scenario": 7359,
      "drawing": 7360,
      "Moms": 7361,
      "meaningful": 7362,
      "punishment": 7363,
      "Caribb": 7364,
      "80s": 7365,
      "jackpot": 7366,
      "humiliating": 7367,
      "90s": 7368,
      "texas": 7369,
      "Joh": 7370,
      "softball": 7371,
      "juice": 7372,
      "juicy": 7373,
      "##load": 7374,
      "funds": 7375,
      "possess": 7376,
      "Korea": 7377,
      "Ooh_comma_": 7378,
      "electricity": 7379,
      "introduced": 7380,
      "Agreed": 7381,
      "infection": 7382,
      "occurred": 7383,
      "typically": 7384,
      "unlocked": 7385,
      "Fortun": 7386,
      "cigare": 7387,
      "errands": 7388,
      "Louisiana": 7389,
      "outlook": 7390,
      "insecure": 7391,
      "sketchy": 7392,
      "watermelon": 7393,
      "Chocolate": 7394,
      "disrespectful": 7395,
      "ankle": 7396,
      "consequences": 7397,
      "symptoms": 7398,
      "unacceptable": 7399,
      "ugly": 7400,
      "Caribbean": 7401,
      "!)": 7402,
      "34": 7403,
      "8th": 7404,
      "Aren": 7405,
      "Bab": 7406,
      "Beach": 7407,
      "Cherish": 7408,
      "FB": 7409,
      "Garden": 7410,
      "Hel": 7411,
      "Here": 7412,
      "Hear": 7413,
      "I_comma_": 7414,
      "Jack": 7415,
      "James": 7416,
      "Med": 7417,
      "Main": 7418,
      "Miss": 7419,
      "MMA": 7420,
      "Ob": 7421,
      "Res": 7422,
      "Rel": 7423,
      "Times": 7424,
      "Woo": 7425,
      "Wee": 7426,
      "Yankees": 7427,
      "cere": 7428,
      "dies": 7429,
      "greet": 7430,
      "hust": 7431,
      "honey": 7432,
      "iphone": 7433,
      "jeez": 7434,
      "lung": 7435,
      "mate": 7436,
      "melt": 7437,
      "netflix": 7438,
      "naughty": 7439,
      "oof": 7440,
      "rack": 7441,
      "san": 7442,
      "sides": 7443,
      "select": 7444,
      "umb": 7445,
      "wing": 7446,
      "##oh": 7447,
      "##corn": 7448,
      "##aith": 7449,
      "##ah_comma_": 7450,
      "##azz": 7451,
      "##nite": 7452,
      "##rud": 7453,
      "##tte": 7454,
      "##udy": 7455,
      "##field": 7456,
      "##br": 7457,
      "##bra": 7458,
      "##house": 7459,
      "##k_comma_": 7460,
      "##zzy": 7461,
      "##ware": 7462,
      "##Tube": 7463,
      "thie": 7464,
      "##atley": 7465,
      "toll": 7466,
      "##orgia": 7467,
      "hah": 7468,
      "##rees": 7469,
      "##anced": 7470,
      "##etto": 7471,
      "##utions": 7472,
      "incom": 7473,
      "liking": 7474,
      "##ril": 7475,
      "necess": 7476,
      "analy": 7477,
      "cans": 7478,
      "reven": 7479,
      "tool": 7480,
      "##eeze": 7481,
      "associ": 7482,
      "been_comma_": 7483,
      "YouTube": 7484,
      "mud": 7485,
      "muse": 7486,
      "newborn": 7487,
      "##ously": 7488,
      "spac": 7489,
      "spots": 7490,
      "budd": 7491,
      "funeral": 7492,
      "##olf": 7493,
      "##olar": 7494,
      "overrea": 7495,
      "##igs": 7496,
      "##beat": 7497,
      "dip": 7498,
      "other_comma_": 7499,
      "lasted": 7500,
      "famous": 7501,
      "wait_comma_": 7502,
      "uncertain": 7503,
      "coupon": 7504,
      "compens": 7505,
      "uses": 7506,
      "thrones": 7507,
      "##eading": 7508,
      "finance": 7509,
      "monster": 7510,
      "recall": 7511,
      "apples": 7512,
      "Maybe_comma_": 7513,
      "##abb": 7514,
      "eat_comma_": 7515,
      "resist": 7516,
      "##agna": 7517,
      "flown": 7518,
      "brothers_comma_": 7519,
      "posit": 7520,
      "##lley": 7521,
      "##ichigan": 7522,
      "everyone_comma_": 7523,
      "winner": 7524,
      "##udes": 7525,
      "ears": 7526,
      "tried_comma_": 7527,
      "memories_comma_": 7528,
      "elsewhere": 7529,
      "##ording": 7530,
      "lucky_comma_": 7531,
      "heals": 7532,
      "paj": 7533,
      "compliment": 7534,
      "room_comma_": 7535,
      "slack": 7536,
      "petty": 7537,
      "past_comma_": 7538,
      "secure": 7539,
      "mornings": 7540,
      "smelly": 7541,
      "company_comma_": 7542,
      "##renal": 7543,
      "##rency": 7544,
      "ask_comma_": 7545,
      "interview_comma_": 7546,
      "Donald": 7547,
      "consol": 7548,
      "reply": 7549,
      "pizza_comma_": 7550,
      "later_comma_": 7551,
      "difficult_comma_": 7552,
      "difficulties": 7553,
      "ones_comma_": 7554,
      "##airy": 7555,
      "rainy": 7556,
      "ridden": 7557,
      "area_comma_": 7558,
      "distant": 7559,
      "failure": 7560,
      "Exc": 7561,
      "country_comma_": 7562,
      "seconds": 7563,
      "rolls": 7564,
      "deadline": 7565,
      "absolut": 7566,
      "Unless": 7567,
      "buildings": 7568,
      "semester_comma_": 7569,
      "eval": 7570,
      "##fficient": 7571,
      "fears": 7572,
      "cancer_comma_": 7573,
      "bummer_comma_": 7574,
      "awhile_comma_": 7575,
      "quitting": 7576,
      "answering": 7577,
      "answered": 7578,
      "coping": 7579,
      "rented": 7580,
      "behaved": 7581,
      "Neat": 7582,
      "motivate": 7583,
      "grounded": 7584,
      "popcorn": 7585,
      "tends": 7586,
      "sticks": 7587,
      "winnings": 7588,
      "grandparent": 7589,
      "debts": 7590,
      "teenage": 7591,
      "##reshing": 7592,
      "cav": 7593,
      "OK_comma_": 7594,
      "refreshing": 7595,
      "Kindergarten": 7596,
      "anticipated": 7597,
      "informed": 7598,
      "therapist": 7599,
      ".\".": 7600,
      "dollars_comma_": 7601,
      "smashed": 7602,
      "Without": 7603,
      "understandable_comma_": 7604,
      "dumpster": 7605,
      "##ombie": 7606,
      "recommendations": 7607,
      "sweaty": 7608,
      "Hmm_comma_": 7609,
      "nieces": 7610,
      "skinny": 7611,
      "suspect": 7612,
      "communication": 7613,
      "biology": 7614,
      "Actually_comma_": 7615,
      "thousands": 7616,
      "allergies": 7617,
      "status": 7618,
      "critters": 7619,
      "battery": 7620,
      "counselor": 7621,
      "volunteer": 7622,
      "typical": 7623,
      "massive": 7624,
      "exhausted": 7625,
      "nicely": 7626,
      "clubs": 7627,
      "reminiscing": 7628,
      "register": 7629,
      "North": 7630,
      "##minator": 7631,
      "participate": 7632,
      "Georgia": 7633,
      "announce": 7634,
      "nerd": 7635,
      "##iami": 7636,
      "spaghetti": 7637,
      "breeze": 7638,
      "intentional": 7639,
      "Brothers": 7640,
      "Austral": 7641,
      "intimidating": 7642,
      "Driving": 7643,
      "Panama": 7644,
      "Atlanta": 7645,
      "chemicals": 7646,
      "Cowboys": 7647,
      "exterminator": 7648,
      "enemy": 7649,
      "Hurricane": 7650,
      "proposal": 7651,
      "##ruder": 7652,
      "revenge": 7653,
      "00": 7654,
      "Aunt": 7655,
      "Ben": 7656,
      "Cup": 7657,
      "Coun": 7658,
      "Double": 7659,
      "Ear": 7660,
      "Each": 7661,
      "Eh_comma_": 7662,
      "Gross": 7663,
      "II": 7664,
      "Imagine": 7665,
      "Jeep": 7666,
      "Le": 7667,
      "Mon": 7668,
      "Math": 7669,
      "Much": 7670,
      "NF": 7671,
      "Pe": 7672,
      "PS": 7673,
      "Por": 7674,
      "Park": 7675,
      "Phew": 7676,
      "Sur": 7677,
      "Tech": 7678,
      "ack": 7679,
      "cure": 7680,
      "cave": 7681,
      "dom": 7682,
      "dim": 7683,
      "dust": 7684,
      "dated": 7685,
      "dorm": 7686,
      "hiring": 7687,
      "led": 7688,
      "lun": 7689,
      "nach": 7690,
      "nagging": 7691,
      "ot": 7692,
      "py": 7693,
      "pal": 7694,
      "tuck": 7695,
      "voted": 7696,
      "vote": 7697,
      "##can": 7698,
      "##lers": 7699,
      "##tion": 7700,
      "##tation": 7701,
      "##ikely": 7702,
      "##bron": 7703,
      "##gal": 7704,
      "##gun": 7705,
      "##kers": 7706,
      "##AS": 7707,
      "##AP": 7708,
      "##ET": 7709,
      "thirty": 7710,
      "##erving": 7711,
      "##edict": 7712,
      "##it_comma_": 7713,
      "##owed": 7714,
      "##ides_comma_": 7715,
      "##sting": 7716,
      "##eter": 7717,
      "##icies": 7718,
      "stars": 7719,
      "staff": 7720,
      "Italian": 7721,
      "##oodle": 7722,
      "goss": 7723,
      "##earten": 7724,
      "abusive": 7725,
      "##irable": 7726,
      "fever": 7727,
      "reass": 7728,
      "had_comma_": 7729,
      "##ula": 7730,
      "##raft": 7731,
      "wouldve": 7732,
      "plastic": 7733,
      "##gebra": 7734,
      "comment": 7735,
      "spill": 7736,
      "joking": 7737,
      "deck": 7738,
      "definit": 7739,
      "safer": 7740,
      "##allas": 7741,
      "buzz": 7742,
      "trade": 7743,
      "love_comma_": 7744,
      "shoulders": 7745,
      "function": 7746,
      "overs": 7747,
      "lebron": 7748,
      "prob": 7749,
      "##ealth": 7750,
      "##ealthy": 7751,
      "seed": 7752,
      "unh": 7753,
      "unus": 7754,
      "##rated": 7755,
      "relive": 7756,
      "sadden": 7757,
      "thought_comma_": 7758,
      "carefully": 7759,
      "remorse": 7760,
      "interrupt": 7761,
      "##mmm": 7762,
      "adrenal": 7763,
      "traged": 7764,
      "traps": 7765,
      "twin": 7766,
      "Awe_comma_": 7767,
      "##inton": 7768,
      "crab": 7769,
      "flipped": 7770,
      "puked": 7771,
      "ready_comma_": 7772,
      "hug": 7773,
      "struck": 7774,
      "pod": 7775,
      "son_comma_": 7776,
      "maybe_comma_": 7777,
      "collection": 7778,
      "insan": 7779,
      "superbowl": 7780,
      "bold": 7781,
      "confer": 7782,
      "confir": 7783,
      "confide": 7784,
      "husbands": 7785,
      "##pleas": 7786,
      "else_comma_": 7787,
      "##order": 7788,
      "girlfriends": 7789,
      "hurt_comma_": 7790,
      "bros_comma_": 7791,
      "##while": 7792,
      "promises": 7793,
      "slapped": 7794,
      "vision": 7795,
      "sickness": 7796,
      "##sian": 7797,
      "differently": 7798,
      "pastor": 7799,
      "breakup": 7800,
      "racist": 7801,
      "raffle": 7802,
      "honk": 7803,
      "heads": 7804,
      "##ifying": 7805,
      "fasting": 7806,
      "policies": 7807,
      "appreciates": 7808,
      "Everybody": 7809,
      "Char": 7810,
      "exam_comma_": 7811,
      "presence": 7812,
      "cow_comma_": 7813,
      "angry_comma_": 7814,
      "delight": 7815,
      "expense": 7816,
      "commend": 7817,
      "##ception": 7818,
      "shops": 7819,
      "lonely_comma_": 7820,
      "north": 7821,
      "restaurants": 7822,
      "advoc": 7823,
      "shoes_comma_": 7824,
      "Sub": 7825,
      "cooks": 7826,
      "rough_comma_": 7827,
      "concern": 7828,
      "distress": 7829,
      "football_comma_": 7830,
      "Except": 7831,
      "parenting": 7832,
      "apartments": 7833,
      "fathers": 7834,
      "midnight": 7835,
      "calories": 7836,
      "issues_comma_": 7837,
      "receiving": 7838,
      "suppose_comma_": 7839,
      "salt": 7840,
      "dropping": 7841,
      "semi": 7842,
      "bands": 7843,
      "compete": 7844,
      "yellow": 7845,
      "concerts": 7846,
      "contacting": 7847,
      "fault_comma_": 7848,
      "candies": 7849,
      "candles": 7850,
      "luckily_comma_": 7851,
      "dug": 7852,
      "Shes": 7853,
      "dishearten": 7854,
      "filed": 7855,
      "films": 7856,
      "clearance": 7857,
      "regrets": 7858,
      "relate_comma_": 7859,
      "##hhh": 7860,
      "tricky": 7861,
      "creating": 7862,
      "created": 7863,
      "internship": 7864,
      "##screen": 7865,
      "allows": 7866,
      "occasions": 7867,
      "leading": 7868,
      "rushed": 7869,
      "loyalty": 7870,
      "Spain": 7871,
      "gunsh": 7872,
      "cuz": 7873,
      "require": 7874,
      "Hahahaha": 7875,
      "machines": 7876,
      "unfaith": 7877,
      "THat": 7878,
      "washed": 7879,
      "introverted": 7880,
      "Clear": 7881,
      "addicted": 7882,
      "bumped": 7883,
      "##aska": 7884,
      "belief": 7885,
      "punished": 7886,
      "wheat": 7887,
      "repeated": 7888,
      "possibility": 7889,
      "Joe": 7890,
      "renov": 7891,
      "##YYYY": 7892,
      "vegetarian": 7893,
      "shifts": 7894,
      "introduce": 7895,
      "silver": 7896,
      "hints": 7897,
      "ordeal": 7898,
      "screwed": 7899,
      "kiddos": 7900,
      "witnessed": 7901,
      "capable": 7902,
      "cornhole": 7903,
      "Crazy": 7904,
      "inches": 7905,
      "upgrade": 7906,
      "##ANT": 7907,
      "championship": 7908,
      "sneaky": 7909,
      "variety": 7910,
      "commitment": 7911,
      "compassionate": 7912,
      "brilliant": 7913,
      "declined": 7914,
      "evacuate": 7915,
      "thunderstorms": 7916,
      "favourite": 7917,
      "commercials": 7918,
      "whilst": 7919,
      "unemployment": 7920,
      "downtown": 7921,
      "outfit": 7922,
      "loser": 7923,
      "Quite": 7924,
      "vitam": 7925,
      "dispute": 7926,
      "heavily": 7927,
      "grumpy": 7928,
      "bodies": 7929,
      "umbre": 7930,
      "spaces": 7931,
      "absolute": 7932,
      "NFL": 7933,
      "acknow": 7934,
      "gossip": 7935,
      "unfaithful": 7936,
      "\"?": 7937,
      "1st": 7938,
      "31": 7939,
      "36": 7940,
      "BI": 7941,
      "Cat": 7942,
      "Ew_comma_": 7943,
      "EVER": 7944,
      "Fo": 7945,
      "Fren": 7946,
      "Hm": 7947,
      "Imp": 7948,
      "Met": 7949,
      "Mother": 7950,
      "Mist": 7951,
      "Money": 7952,
      "ON": 7953,
      "Pu": 7954,
      "Pizz": 7955,
      "Pets": 7956,
      "SH": 7957,
      "Toy": 7958,
      "Ut": 7959,
      "UK": 7960,
      "Under": 7961,
      "beans": 7962,
      "dwell": 7963,
      "gag": 7964,
      "guts": 7965,
      "igu": 7966,
      "iron": 7967,
      "jam": 7968,
      "mat": 7969,
      "mates": 7970,
      "pra": 7971,
      "pile": 7972,
      "sin": 7973,
      "sane": 7974,
      "tut": 7975,
      "tad": 7976,
      "tuition": 7977,
      "vul": 7978,
      "wrist": 7979,
      "york": 7980,
      "yup": 7981,
      "zombie": 7982,
      "##car": 7983,
      "##cil": 7984,
      "##cons": 7985,
      "##aid": 7986,
      "##afe": 7987,
      "##aire": 7988,
      "##lif": 7989,
      "##ext": 7990,
      "##ram": 7991,
      "##son": 7992,
      "##pared": 7993,
      "##paper": 7994,
      "##porate": 7995,
      "##uary": 7996,
      "##iu": 7997,
      "##ius": 7998,
      "##iac": 7999,
      "##dom": 8000,
      "##mo": 8001,
      "##fun": 8002,
      "##face": 8003,
      "##gent": 8004,
      "##AR": 8005,
      "##jack": 8006,
      "##OL": 8007,
      "##EO": 8008,
      "##NA": 8009,
      "thursday": 8010,
      "##ern": 8011,
      "##erent": 8012,
      "##oma": 8013,
      "tore": 8014,
      "toast": 8015,
      "##ndr": 8016,
      "##mas_comma_": 8017,
      "##esus": 8018,
      "##eapp": 8019,
      "hammer": 8020,
      "##reci": 8021,
      "beers": 8022,
      "begging": 8023,
      "##itly": 8024,
      "##stery": 8025,
      "##stances": 8026,
      "former": 8027,
      "##imp": 8028,
      "##icles": 8029,
      "##icament": 8030,
      "##rier": 8031,
      "##ries_comma_": 8032,
      "web": 8033,
      "neut": 8034,
      "wore": 8035,
      "heated": 8036,
      "##amper": 8037,
      "##amond": 8038,
      "outs": 8039,
      "##alf": 8040,
      "locks": 8041,
      "knees": 8042,
      "##urg": 8043,
      "##eem": 8044,
      "shed": 8045,
      "shout": 8046,
      "shakes": 8047,
      "shred": 8048,
      "knows_comma_": 8049,
      "herbs": 8050,
      "##ulk": 8051,
      "##raged": 8052,
      "aww": 8053,
      "cha": 8054,
      "chunk": 8055,
      "chosen": 8056,
      "ornam": 8057,
      "werew": 8058,
      "moon": 8059,
      "new_comma_": 8060,
      "comic": 8061,
      "cloud": 8062,
      "scan": 8063,
      "guide": 8064,
      "carp": 8065,
      "brat": 8066,
      "hasnt": 8067,
      "coin": 8068,
      "coord": 8069,
      "max": 8070,
      "mama": 8071,
      "dogg": 8072,
      "doggy": 8073,
      "diab": 8074,
      "diamond": 8075,
      "lasting": 8076,
      "Doctor": 8077,
      "startled": 8078,
      "intruder": 8079,
      "someone_comma_": 8080,
      "roaches": 8081,
      "##full": 8082,
      "relieve": 8083,
      "##acles": 8084,
      "actors": 8085,
      "cooler": 8086,
      "coolest": 8087,
      "swam": 8088,
      "talents": 8089,
      "##ipolar": 8090,
      "apps": 8091,
      "impat": 8092,
      "surreal": 8093,
      "resour": 8094,
      "!!.": 8095,
      "crim": 8096,
      "crushing": 8097,
      "bites": 8098,
      "thanks_comma_": 8099,
      "##mories": 8100,
      "cat_comma_": 8101,
      "decline": 8102,
      "decade": 8103,
      "decades": 8104,
      "humor": 8105,
      "strict": 8106,
      "marks": 8107,
      "husk": 8108,
      "boom": 8109,
      "boots": 8110,
      "Somewhat": 8111,
      "##ords": 8112,
      "Memories": 8113,
      "classroom": 8114,
      "important_comma_": 8115,
      "checks": 8116,
      "##umstances": 8117,
      "pets_comma_": 8118,
      "installed": 8119,
      "prepared_comma_": 8120,
      "mind_comma_": 8121,
      "extended": 8122,
      "sister_comma_": 8123,
      "Atleast": 8124,
      "Stress": 8125,
      "Chicago": 8126,
      "specialist": 8127,
      "##itches": 8128,
      "doorstep": 8129,
      "snuck": 8130,
      "Really_comma_": 8131,
      "!!!!!": 8132,
      "settled": 8133,
      "certified": 8134,
      "beaches": 8135,
      "##eber": 8136,
      "problems_comma_": 8137,
      "future_comma_": 8138,
      "Sundays": 8139,
      "affair": 8140,
      "safe_comma_": 8141,
      "drain": 8142,
      "boyfriend_comma_": 8143,
      "concerns": 8144,
      "presenting": 8145,
      "presented": 8146,
      "statement": 8147,
      "curse": 8148,
      "warri": 8149,
      "##ruct": 8150,
      "father_comma_": 8151,
      "photograph": 8152,
      "practically": 8153,
      "brakes": 8154,
      "everyday_comma_": 8155,
      "redo": 8156,
      "projects": 8157,
      "salv": 8158,
      "burning": 8159,
      "touching": 8160,
      "##itsu": 8161,
      "beaten": 8162,
      "loudly": 8163,
      "careful_comma_": 8164,
      "mailbox": 8165,
      "destination": 8166,
      "Shame": 8167,
      "Flags": 8168,
      "sunscreen": 8169,
      "driver_comma_": 8170,
      "Probably_comma_": 8171,
      "student_comma_": 8172,
      "doubt_comma_": 8173,
      "solo": 8174,
      "artistic": 8175,
      "legit": 8176,
      "##sche": 8177,
      "thankfully_comma_": 8178,
      "levels": 8179,
      "booze": 8180,
      "tempted": 8181,
      "exercising": 8182,
      "lifel": 8183,
      "lifetime": 8184,
      "Trying": 8185,
      "researching": 8186,
      "Break": 8187,
      "organization": 8188,
      "Perfect": 8189,
      "risky": 8190,
      "neglect": 8191,
      "shelters": 8192,
      "THE": 8193,
      "nails": 8194,
      "challenges": 8195,
      "Clinton": 8196,
      "grandfathers": 8197,
      "bullet": 8198,
      "owes": 8199,
      "Blue": 8200,
      "stocked": 8201,
      "freel": 8202,
      "reunited": 8203,
      "recognition": 8204,
      "recognized": 8205,
      "Bummer": 8206,
      "grill": 8207,
      "grieve": 8208,
      "##LLP": 8209,
      "Thinking": 8210,
      "scenery": 8211,
      "developed": 8212,
      "conditioning": 8213,
      "##going": 8214,
      "brownies": 8215,
      "crawl": 8216,
      "crowds": 8217,
      "unsafe": 8218,
      "Navy": 8219,
      "damn_comma_": 8220,
      "nope_comma_": 8221,
      "software": 8222,
      "digest": 8223,
      "butterfl": 8224,
      "Army": 8225,
      "included": 8226,
      "folk": 8227,
      "##evision": 8228,
      "fraud": 8229,
      "Starbucks": 8230,
      "immune": 8231,
      "##cribe": 8232,
      "temperature": 8233,
      "sharks": 8234,
      "Wonderful": 8235,
      "discuss": 8236,
      "grey": 8237,
      "lasagna": 8238,
      "naked": 8239,
      "arrested": 8240,
      "betrayed": 8241,
      "drowning": 8242,
      "mosquito": 8243,
      "ultimately": 8244,
      "predicament": 8245,
      "objects": 8246,
      "cuddle": 8247,
      "mexican": 8248,
      "bucket": 8249,
      "dissap": 8250,
      "achieved": 8251,
      "extension": 8252,
      "clumsy": 8253,
      "appropriate": 8254,
      "skiing": 8255,
      "circumstances": 8256,
      "breweries": 8257,
      "##errari": 8258,
      "veggies": 8259,
      "Theres": 8260,
      "weighing": 8261,
      "author": 8262,
      "HELLP": 8263,
      "Music": 8264,
      "NEVER": 8265,
      "##donalds": 8266,
      "elevator": 8267,
      "ASAP": 8268,
      "aisle": 8269,
      "Happens": 8270,
      "John": 8271,
      "Fortunately": 8272,
      "analyst": 8273,
      "buddies": 8274,
      "overreact": 8275,
      "cavs": 8276,
      "PS4": 8277,
      "tragedy": 8278,
      "insanely": 8279,
      "umbrella": 8280,
      "French": 8281,
      "Pizza": 8282,
      "##function": 8283,
      "28": 8284,
      "3_comma_": 8285,
      "Av": 8286,
      "AL": 8287,
      "Ang": 8288,
      "Bat": 8289,
      "Bel": 8290,
      "Boston": 8291,
      "CD": 8292,
      "CEO": 8293,
      "Dou": 8294,
      "Dude": 8295,
      "Darn": 8296,
      "Dallas": 8297,
      "FL": 8298,
      "Fant": 8299,
      "Gen": 8300,
      "Goo": 8301,
      "HU": 8302,
      "IR": 8303,
      "Jan": 8304,
      "Job": 8305,
      "Land": 8306,
      "Lak": 8307,
      "MA": 8308,
      "Min": 8309,
      "Mic": 8310,
      "MRI": 8311,
      "Miami": 8312,
      "NY": 8313,
      "Pat": 8314,
      "Ru": 8315,
      "Ram": 8316,
      "Rep": 8317,
      "SAT": 8318,
      "Science": 8319,
      "Used": 8320,
      "Viet": 8321,
      "WI": 8322,
      "Won": 8323,
      "ain": 8324,
      "beaming": 8325,
      "dedu": 8326,
      "eb": 8327,
      "eh": 8328,
      "era": 8329,
      "fash": 8330,
      "hook": 8331,
      "image": 8332,
      "jazz": 8333,
      "ly": 8334,
      "lump": 8335,
      "mowing": 8336,
      "nause": 8337,
      "punk": 8338,
      "rus": 8339,
      "rum": 8340,
      "tan": 8341,
      "tension": 8342,
      "wat": 8343,
      "west": 8344,
      "xbox": 8345,
      "##cos": 8346,
      "##lic": 8347,
      "##luck": 8348,
      "##lbs": 8349,
      "##nal": 8350,
      "##nox": 8351,
      "##vest": 8352,
      "##saw": 8353,
      "##ping_comma_": 8354,
      "##uce": 8355,
      "##i_comma_": 8356,
      "##ios": 8357,
      "##iqu": 8358,
      "##fa": 8359,
      "##bble": 8360,
      "##gl": 8361,
      "##gling": 8362,
      "##zil": 8363,
      "##water": 8364,
      "##IT": 8365,
      "##64": 8366,
      "##ona": 8367,
      "##anoid": 8368,
      "##ancing": 8369,
      "##itter": 8370,
      "##state": 8371,
      "##utter": 8372,
      "##aroo": 8373,
      "forced": 8374,
      "sober": 8375,
      "##iser": 8376,
      "docile": 8377,
      "##iche": 8378,
      "liar": 8379,
      "stea": 8380,
      "stad": 8381,
      "stal": 8382,
      "whip": 8383,
      "##opped": 8384,
      "##ent_comma_": 8385,
      "##ented": 8386,
      "##adas": 8387,
      "##lying": 8388,
      "##lymp": 8389,
      "get_comma_": 8390,
      "ambul": 8391,
      "cancell": 8392,
      "atm": 8393,
      "feature": 8394,
      "rewards": 8395,
      "lob": 8396,
      "Whatever": 8397,
      "##inds": 8398,
      "##asting": 8399,
      "##roll": 8400,
      "gotcha": 8401,
      "bacon": 8402,
      "anyhow": 8403,
      "chronic": 8404,
      "Whoop": 8405,
      "Thought": 8406,
      "preca": 8407,
      "##ainted": 8408,
      "spooked": 8409,
      "##andy": 8410,
      "could_comma_": 8411,
      "guarant": 8412,
      "depl": 8413,
      "sav": 8414,
      "bum": 8415,
      "concent": 8416,
      "##oyal": 8417,
      "##olina": 8418,
      "longest": 8419,
      "arc": 8420,
      "arch": 8421,
      "prett": 8422,
      "##mbled": 8423,
      "whoa": 8424,
      "wage": 8425,
      "stubbed": 8426,
      "start_comma_": 8427,
      "by_comma_": 8428,
      "intri": 8429,
      "##reek": 8430,
      "roach": 8431,
      "nightlight": 8432,
      "paranoid": 8433,
      "tack": 8434,
      "tabl": 8435,
      "tacos": 8436,
      "##aceable": 8437,
      "monitor": 8438,
      "plan_comma_": 8439,
      "blo": 8440,
      "ache": 8441,
      "come_comma_": 8442,
      "mission": 8443,
      "reset": 8444,
      "resort": 8445,
      "trapped": 8446,
      "wanted_comma_": 8447,
      "thanked": 8448,
      "##age_comma_": 8449,
      "ideal": 8450,
      "flush": 8451,
      "publ": 8452,
      "##action": 8453,
      "##udge": 8454,
      "##udos": 8455,
      "wondered": 8456,
      "Congrats_comma_": 8457,
      "learnt": 8458,
      "testing": 8459,
      "##nerable": 8460,
      "attach": 8461,
      "specially": 8462,
      "Meg": 8463,
      "describe": 8464,
      "slap": 8465,
      "slices": 8466,
      "spends": 8467,
      "painted": 8468,
      "gamble": 8469,
      "phone_comma_": 8470,
      "##shine": 8471,
      "Sometimes_comma_": 8472,
      "10k": 8473,
      "messaging": 8474,
      "studies": 8475,
      "minim": 8476,
      "newspaper": 8477,
      "pointless": 8478,
      "preschool": 8479,
      "fruster": 8480,
      "frustration": 8481,
      "accident_comma_": 8482,
      "sets": 8483,
      "children_comma_": 8484,
      "ruins": 8485,
      "rubbing": 8486,
      "shopping_comma_": 8487,
      "##olution": 8488,
      "##odes": 8489,
      "shovel": 8490,
      "name_comma_": 8491,
      "congrats_comma_": 8492,
      "instead_comma_": 8493,
      "Alright": 8494,
      "Alaska": 8495,
      "##force": 8496,
      "moving_comma_": 8497,
      "offering": 8498,
      "musical": 8499,
      "throws": 8500,
      "fails": 8501,
      "daunting": 8502,
      "business_comma_": 8503,
      "forever_comma_": 8504,
      "##ansas": 8505,
      "sorted": 8506,
      "##ically_comma_": 8507,
      "entirely": 8508,
      "?!?": 8509,
      "calc": 8510,
      "calming": 8511,
      "calmed": 8512,
      "Ahh_comma_": 8513,
      "braves": 8514,
      "nug": 8515,
      "adds": 8516,
      "##grity": 8517,
      "embarrassed_comma_": 8518,
      "disappointment": 8519,
      "Gold": 8520,
      "boxer": 8521,
      "rude_comma_": 8522,
      "burst": 8523,
      "stressful_comma_": 8524,
      "powerful": 8525,
      "##ocrats": 8526,
      "successfully": 8527,
      "signal": 8528,
      "antsy": 8529,
      "grace": 8530,
      "qualify": 8531,
      "patients": 8532,
      "ghetto": 8533,
      "knocking": 8534,
      "hahahaha": 8535,
      "degrees": 8536,
      "lie_comma_": 8537,
      "sunshine": 8538,
      "creeps": 8539,
      "obnox": 8540,
      "cleared": 8541,
      "admitted": 8542,
      "hungry_comma_": 8543,
      "borrowing": 8544,
      "legal": 8545,
      "kicks": 8546,
      "investing": 8547,
      "bathing": 8548,
      "bears": 8549,
      "Plan": 8550,
      "assumed": 8551,
      "sentimentally": 8552,
      "##aware": 8553,
      "experiencing": 8554,
      "capt": 8555,
      "blue_comma_": 8556,
      "confronted": 8557,
      "Brit": 8558,
      "##backs": 8559,
      "##iiii": 8560,
      "anticipate": 8561,
      "squid": 8562,
      "dang_comma_": 8563,
      "blocking": 8564,
      "flooding": 8565,
      "pricey": 8566,
      "##world": 8567,
      "Cozumel": 8568,
      "Scared": 8569,
      "epic": 8570,
      "directions": 8571,
      "punched": 8572,
      "politicians": 8573,
      "wheels": 8574,
      "soulmate": 8575,
      "Also_comma_": 8576,
      "mirror": 8577,
      "cracked": 8578,
      "poisonous": 8579,
      "350": 8580,
      "bunny": 8581,
      "Apparently_comma_": 8582,
      "episodes": 8583,
      "Saving": 8584,
      "tailg": 8585,
      "separated": 8586,
      "Japanese": 8587,
      "pillow": 8588,
      "##offs": 8589,
      "mutt": 8590,
      "chainsaw": 8591,
      "Damn_comma_": 8592,
      "sensitive": 8593,
      "Thrones": 8594,
      "bullying": 8595,
      "strawberry": 8596,
      "mosquitos": 8597,
      "Recently_comma_": 8598,
      "League": 8599,
      "lux": 8600,
      "pineapp": 8601,
      "title": 8602,
      "##radulations": 8603,
      "warranty": 8604,
      "emergencies": 8605,
      "Jerry": 8606,
      "Wednesday": 8607,
      "skateboard": 8608,
      "assignments": 8609,
      "cockroach": 8610,
      "Needless": 8611,
      "breast": 8612,
      "wiped": 8613,
      "individual": 8614,
      "burrito": 8615,
      "investigate": 8616,
      "Physics": 8617,
      "operation": 8618,
      "division": 8619,
      "permanent": 8620,
      "occupied": 8621,
      "discouraging": 8622,
      "Madden": 8623,
      "Spring": 8624,
      "raccoon": 8625,
      "Costco": 8626,
      "civil": 8627,
      "padre": 8628,
      "television": 8629,
      "summers": 8630,
      "Financial": 8631,
      "ceremony": 8632,
      "incompet": 8633,
      "Counsel": 8634,
      "Porsche": 8635,
      "nachos": 8636,
      "conference": 8637,
      "Mistakes": 8638,
      "iguana": 8639,
      "vulnerable": 8640,
      "##ndrome": 8641,
      "Fantastic": 8642,
      "Lakers": 8643,
      "Vietnam": 8644,
      "fashion": 8645,
      "##iques": 8646,
      "stadium": 8647,
      "obnoxious": 8648,
      "pineapple": 8649,
      "7th": 8650,
      "99": 8651,
      ";-)": 8652,
      "Aud": 8653,
      "Cr": 8654,
      "Come": 8655,
      "Civ": 8656,
      "CPA": 8657,
      "Dra": 8658,
      "During": 8659,
      "Educ": 8660,
      "Econom": 8661,
      "GRE": 8662,
      "Hang": 8663,
      "Kong": 8664,
      "Mid": 8665,
      "Mont": 8666,
      "Mountain": 8667,
      "Ooo": 8668,
      "Pol": 8669,
      "Que": 8670,
      "Ra": 8671,
      "San": 8672,
      "Saw": 8673,
      "Sucks": 8674,
      "Tough": 8675,
      "Use": 8676,
      "Ven": 8677,
      "ah_comma_": 8678,
      "bb": 8679,
      "bid": 8680,
      "bed_comma_": 8681,
      "doo": 8682,
      "eagles": 8683,
      "fess": 8684,
      "fasc": 8685,
      "greed": 8686,
      "jiu": 8687,
      "jitsu": 8688,
      "king": 8689,
      "kis": 8690,
      "leak": 8691,
      "lugg": 8692,
      "lining": 8693,
      "mask": 8694,
      "oy": 8695,
      "ted": 8696,
      "tank": 8697,
      "ties": 8698,
      "tied": 8699,
      "tune": 8700,
      "tired_comma_": 8701,
      "vivid": 8702,
      "wipe": 8703,
      "##cies": 8704,
      "##amas": 8705,
      "##life": 8706,
      "##vo": 8707,
      "##vil": 8708,
      "##rition": 8709,
      "##sut": 8710,
      "##pm": 8711,
      "##uld": 8712,
      "##ipper": 8713,
      "##dad": 8714,
      "##ding_comma_": 8715,
      "##dens": 8716,
      "##ming_comma_": 8717,
      "##mower": 8718,
      "##gain": 8719,
      "##gment": 8720,
      "##gues": 8721,
      "##hen": 8722,
      "##kery": 8723,
      "##ws": 8724,
      "##AA": 8725,
      "##ME": 8726,
      "##RO": 8727,
      "##RD": 8728,
      "##OT": 8729,
      "##EP": 8730,
      "##UT": 8731,
      "##GE": 8732,
      "##atically": 8733,
      "##erole": 8734,
      "##oman": 8735,
      "##nds": 8736,
      "##asp": 8737,
      "##en_comma_": 8738,
      "##eavor": 8739,
      "##onom": 8740,
      "##onic": 8741,
      "ha_comma_": 8742,
      "##rel": 8743,
      "##rels": 8744,
      "bell": 8745,
      "belly": 8746,
      "inher": 8747,
      "##arate": 8748,
      "##arming": 8749,
      "##isy": 8750,
      "##isine": 8751,
      "##isure": 8752,
      "dod": 8753,
      "dope": 8754,
      "##heville": 8755,
      "##icop": 8756,
      "stack": 8757,
      "##ching": 8758,
      "##adill": 8759,
      "##see": 8760,
      "goin": 8761,
      "sum": 8762,
      "##ckless": 8763,
      "geta": 8764,
      "heirl": 8765,
      "##alent": 8766,
      "reckless": 8767,
      "Ohh_comma_": 8768,
      "upstairs": 8769,
      "##eeee": 8770,
      "shr": 8771,
      "shown": 8772,
      "hadnt": 8773,
      "Weird": 8774,
      "bail": 8775,
      "bakery": 8776,
      "frame": 8777,
      "greatly": 8778,
      "beta": 8779,
      "chir": 8780,
      "chess": 8781,
      "chap": 8782,
      "chub": 8783,
      "org": 8784,
      "oral": 8785,
      "yearbook": 8786,
      "##iles": 8787,
      "mob": 8788,
      "welling": 8789,
      "clo": 8790,
      "clin": 8791,
      "clients": 8792,
      "aged": 8793,
      "agent": 8794,
      "jog": 8795,
      "saver": 8796,
      "saves": 8797,
      "trim": 8798,
      "trunk": 8799,
      "concept": 8800,
      "convenience": 8801,
      "##oler": 8802,
      "##oles": 8803,
      "overfl": 8804,
      "overtime": 8805,
      "jobless": 8806,
      "##iger": 8807,
      "enlight": 8808,
      "fab": 8809,
      "leisure": 8810,
      "need_comma_": 8811,
      "kind_comma_": 8812,
      "coat": 8813,
      "coins": 8814,
      "mac": 8815,
      "maker": 8816,
      "helicop": 8817,
      "scariest": 8818,
      "gram": 8819,
      "quilt": 8820,
      "unner": 8821,
      "made_comma_": 8822,
      "rod": 8823,
      "parrot": 8824,
      "##ressive": 8825,
      "big_comma_": 8826,
      "endeavor": 8827,
      "downs": 8828,
      "glad_comma_": 8829,
      "##ipt": 8830,
      "approve": 8831,
      "dram": 8832,
      "drums": 8833,
      "remod": 8834,
      "monthly": 8835,
      "persist": 8836,
      "won_comma_": 8837,
      "crust": 8838,
      "cram": 8839,
      "phr": 8840,
      "sits": 8841,
      "##finity": 8842,
      "craz": 8843,
      "supper": 8844,
      "puzz": 8845,
      "proud_comma_": 8846,
      "wrest": 8847,
      "decides": 8848,
      "poker": 8849,
      "insist": 8850,
      "clean_comma_": 8851,
      "mario": 8852,
      "together_comma_": 8853,
      "##anged": 8854,
      "elated": 8855,
      "boats": 8856,
      "confl": 8857,
      "spect": 8858,
      "husband_comma_": 8859,
      "dealer": 8860,
      "healed": 8861,
      "lakers": 8862,
      "close_comma_": 8863,
      "expert": 8864,
      "deserving": 8865,
      "promotions": 8866,
      "according": 8867,
      "hand_comma_": 8868,
      "Sometime": 8869,
      "wonderful_comma_": 8870,
      "retri": 8871,
      "retired": 8872,
      "holy": 8873,
      "raw": 8874,
      "gone_comma_": 8875,
      "smiling": 8876,
      "##upid": 8877,
      "embarrased": 8878,
      "messes": 8879,
      "appreciation": 8880,
      "Study": 8881,
      "special_comma_": 8882,
      "serving": 8883,
      "consult": 8884,
      "conscience": 8885,
      "Inst": 8886,
      "cardio": 8887,
      "huge_comma_": 8888,
      "charges": 8889,
      "road_comma_": 8890,
      "positive_comma_": 8891,
      "empath": 8892,
      "fallen": 8893,
      "advanced": 8894,
      "rain_comma_": 8895,
      "congratulate": 8896,
      "Alab": 8897,
      "eyed": 8898,
      "eyes_comma_": 8899,
      "behold": 8900,
      "disgusting_comma_": 8901,
      "seriously_comma_": 8902,
      "affordable": 8903,
      "age_comma_": 8904,
      "locally": 8905,
      "beauty": 8906,
      "books_comma_": 8907,
      "wears": 8908,
      "weight_comma_": 8909,
      "replacing": 8910,
      "grade_comma_": 8911,
      "bargain": 8912,
      "closely": 8913,
      "Orl": 8914,
      "Orland": 8915,
      "lives_comma_": 8916,
      "yard_comma_": 8917,
      "deadly": 8918,
      "addic": 8919,
      "celebration": 8920,
      "subm": 8921,
      "subway": 8922,
      "poorly": 8923,
      "##iversal": 8924,
      "explode": 8925,
      "majoring": 8926,
      "neighborhood_comma_": 8927,
      "dieting": 8928,
      "larger": 8929,
      "##ocur": 8930,
      "normal_comma_": 8931,
      "unexpect": 8932,
      "chickens": 8933,
      "prayers": 8934,
      "profit": 8935,
      "severance": 8936,
      "earlier_comma_": 8937,
      "transplant": 8938,
      "advice_comma_": 8939,
      "obed": 8940,
      "cold_comma_": 8941,
      "bag_comma_": 8942,
      "ghosted": 8943,
      "regretted": 8944,
      "##cony": 8945,
      "traveled": 8946,
      "Disgust": 8947,
      "##atory": 8948,
      "bats": 8949,
      "fantasy": 8950,
      "alive_comma_": 8951,
      "Awwww": 8952,
      "switched": 8953,
      "tracking": 8954,
      "250": 8955,
      "leadership": 8956,
      "recovering": 8957,
      "autonom": 8958,
      "pleasantly": 8959,
      "Animal": 8960,
      "cuisine": 8961,
      "defensive": 8962,
      "ignoring": 8963,
      "judgment": 8964,
      "lawnmower": 8965,
      "vomiting": 8966,
      "professionally": 8967,
      "performing": 8968,
      "products": 8969,
      "immediate": 8970,
      "recommended": 8971,
      "unlikely": 8972,
      "attending": 8973,
      "correctly": 8974,
      "exception": 8975,
      "bullets": 8976,
      "breathing": 8977,
      "Check": 8978,
      "infront": 8979,
      "friendships": 8980,
      "campus": 8981,
      "##icycle": 8982,
      "emails": 8983,
      "politics": 8984,
      "Pho": 8985,
      "HARD": 8986,
      "balcony": 8987,
      "unsett": 8988,
      "histor": 8989,
      "belonged": 8990,
      "effective": 8991,
      "privacy": 8992,
      "Calcul": 8993,
      "hosting": 8994,
      "digging": 8995,
      "sooooo": 8996,
      "diagnosis": 8997,
      "ISP": 8998,
      "geez_comma_": 8999,
      "row_comma_": 9000,
      "denied": 9001,
      "toddlers": 9002,
      "fruits": 9003,
      "clowns": 9004,
      "improved": 9005,
      "transferred": 9006,
      "immig": 9007,
      "olives": 9008,
      "Drink": 9009,
      "blanket": 9010,
      "##ifferent": 9011,
      "chips": 9012,
      "troubling": 9013,
      "Brazil": 9014,
      "essential": 9015,
      "psychology": 9016,
      "equip": 9017,
      "mutual": 9018,
      "entertainment": 9019,
      "exhausting": 9020,
      "network": 9021,
      "aweful": 9022,
      "details": 9023,
      "Normally": 9024,
      "initi": 9025,
      "target": 9026,
      "banging": 9027,
      "officially": 9028,
      "ultimate": 9029,
      "wisely": 9030,
      "robot": 9031,
      "Christian": 9032,
      "consistent": 9033,
      "Bros": 9034,
      "Congradulations": 9035,
      "grandchildren": 9036,
      "freezer": 9037,
      "temporary": 9038,
      "inspiration": 9039,
      "latest": 9040,
      "traumatized": 9041,
      "Irma": 9042,
      "dosnt": 9043,
      "casserole": 9044,
      "eternity": 9045,
      "reservations": 9046,
      "essentials": 9047,
      "pancreatitis": 9048,
      "Olive": 9049,
      "President": 9050,
      "gallon": 9051,
      "wifes": 9052,
      "maintenance": 9053,
      "selected": 9054,
      "##igslist": 9055,
      "Pepper": 9056,
      "Surpr": 9057,
      "tucked": 9058,
      "confirm": 9059,
      "##pleasant": 9060,
      "advocate": 9061,
      "gunshots": 9062,
      "SHe": 9063,
      "Understand": 9064,
      "tutor": 9065,
      "##lifting": 9066,
      "neutral": 9067,
      "diabet": 9068,
      "impatient": 9069,
      "warriors": 9070,
      "butterflies": 9071,
      "IRS": 9072,
      "deploy": 9073,
      "tackle": 9074,
      "tablet": 9075,
      "Education": 9076,
      "luggage": 9077,
      "##adillac": 9078,
      "heirloom": 9079,
      "chubby": 9080,
      "helicopter": 9081,
      "unsettling": 9082,
      "27": 9083,
      "2_comma_": 9084,
      "32": 9085,
      "Ac": 9086,
      "Ap": 9087,
      "CA": 9088,
      "Cor": 9089,
      "Des": 9090,
      "Dead": 9091,
      "Dealing": 9092,
      "Dairy": 9093,
      "Fil": 9094,
      "Four": 9095,
      "Gh": 9096,
      "Ger": 9097,
      "Hist": 9098,
      "Hold": 9099,
      "Junior": 9100,
      "Jesus": 9101,
      "Kart": 9102,
      "Nash": 9103,
      "Naw": 9104,
      "NES": 9105,
      "Olymp": 9106,
      "Rome": 9107,
      "Real": 9108,
      "Tur": 9109,
      "UPS": 9110,
      "Yale": 9111,
      "Years": 9112,
      "Zeld": 9113,
      "bent": 9114,
      "biz": 9115,
      "bicycle": 9116,
      "cong": 9117,
      "cos": 9118,
      "dare": 9119,
[...]
